const unsigned char g_magic_wand_model_data[] = {
  0x20, 0x00, 0x00, 0x00, 0x54, 0x46, 0x4c, 0x33, 0x00, 0x00, 0x00, 0x00,
  0x00, 0x00, 0x12, 0x00, 0x1c, 0x00, 0x04, 0x00, 0x08, 0x00, 0x0c, 0x00,
  0x10, 0x00, 0x14, 0x00, 0x00, 0x00, 0x18, 0x00, 0x12, 0x00, 0x00, 0x00,
  0x03, 0x00, 0x00, 0x00, 0x84, 0x25, 0x00, 0x00, 0x28, 0x1b, 0x00, 0x00,
  0x10, 0x1b, 0x00, 0x00, 0x3c, 0x00, 0x00, 0x00, 0x04, 0x00, 0x00, 0x00,
  0x01, 0x00, 0x00, 0x00, 0x0c, 0x00, 0x00, 0x00, 0x08, 0x00, 0x0c, 0x00,
  0x04, 0x00, 0x08, 0x00, 0x08, 0x00, 0x00, 0x00, 0x08, 0x00, 0x00, 0x00,
  0x13, 0x00, 0x00, 0x00, 0x13, 0x00, 0x00, 0x00, 0x6d, 0x69, 0x6e, 0x5f,
  0x72, 0x75, 0x6e, 0x74, 0x69, 0x6d, 0x65, 0x5f, 0x76, 0x65, 0x72, 0x73,
  0x69, 0x6f, 0x6e, 0x00, 0x14, 0x00, 0x00, 0x00, 0xc8, 0x1a, 0x00, 0x00,
  0xb4, 0x1a, 0x00, 0x00, 0x98, 0x1a, 0x00, 0x00, 0x74, 0x1a, 0x00, 0x00,
  0x20, 0x1a, 0x00, 0x00, 0xcc, 0x19, 0x00, 0x00, 0x98, 0x19, 0x00, 0x00,
  0x84, 0x0b, 0x00, 0x00, 0x70, 0x0a, 0x00, 0x00, 0xdc, 0x08, 0x00, 0x00,
  0xc8, 0x00, 0x00, 0x00, 0xbc, 0x00, 0x00, 0x00, 0xa8, 0x00, 0x00, 0x00,
  0x94, 0x00, 0x00, 0x00, 0x80, 0x00, 0x00, 0x00, 0x6c, 0x00, 0x00, 0x00,
  0x58, 0x00, 0x00, 0x00, 0x44, 0x00, 0x00, 0x00, 0x30, 0x00, 0x00, 0x00,
  0x04, 0x00, 0x00, 0x00, 0xf6, 0xe4, 0xff, 0xff, 0x04, 0x00, 0x00, 0x00,
  0x10, 0x00, 0x00, 0x00, 0x31, 0x2e, 0x35, 0x2e, 0x30, 0x00, 0x00, 0x00,
  0x00, 0x00, 0x00, 0x00, 0x00, 0x00, 0x00, 0x00, 0x00, 0x00, 0x00, 0x00,
  0x00, 0x00, 0x00, 0x00, 0x00, 0x00, 0x00, 0x00, 0x70, 0xdb, 0xff, 0xff,
  0x00, 0x00, 0x00, 0x00, 0x00, 0x00, 0x00, 0x00, 0x00, 0x00, 0x00, 0x00,
  0x80, 0xdb, 0xff, 0xff, 0x00, 0x00, 0x00, 0x00, 0x00, 0x00, 0x00, 0x00,
  0x00, 0x00, 0x00, 0x00, 0x90, 0xdb, 0xff, 0xff, 0x00, 0x00, 0x00, 0x00,
  0x00, 0x00, 0x00, 0x00, 0x00, 0x00, 0x00, 0x00, 0xa0, 0xdb, 0xff, 0xff,
  0x00, 0x00, 0x00, 0x00, 0x00, 0x00, 0x00, 0x00, 0x00, 0x00, 0x00, 0x00,
  0xb0, 0xdb, 0xff, 0xff, 0x00, 0x00, 0x00, 0x00, 0x00, 0x00, 0x00, 0x00,
  0x00, 0x00, 0x00, 0x00, 0xc0, 0xdb, 0xff, 0xff, 0x00, 0x00, 0x00, 0x00,
  0x00, 0x00, 0x00, 0x00, 0x00, 0x00, 0x00, 0x00, 0xd0, 0xdb, 0xff, 0xff,
  0x00, 0x00, 0x00, 0x00, 0x00, 0x00, 0x00, 0x00, 0x00, 0x00, 0x00, 0x00,
  0xe0, 0xdb, 0xff, 0xff, 0x00, 0x00, 0x00, 0x00, 0x96, 0xe5, 0xff, 0xff,
  0x04, 0x00, 0x00, 0x00, 0x00, 0x08, 0x00, 0x00, 0x29, 0x05, 0x74, 0xbe,
  0x28, 0x9d, 0x86, 0x3d, 0xbd, 0xe3, 0x82, 0xbe, 0x27, 0x30, 0x53, 0xbe,
  0xca, 0xea, 0x22, 0xbe, 0x8b, 0x36, 0x3b, 0x3e, 0x09, 0x3c, 0x3d, 0x3e,
  0x68, 0x7e, 0xd7, 0xbd, 0x20, 0x85, 0x41, 0xbe, 0xcd, 0x31, 0xd4, 0x3d,
  0xa8, 0xd2, 0x63, 0xbd, 0xa9, 0xa9, 0x45, 0x3d, 0xea, 0xf2, 0x0e, 0x3e,
  0xc8, 0x01, 0xe5, 0x3c, 0xb6, 0xff, 0x69, 0xbe, 0x8e, 0xc6, 0x4b, 0x3e,
  0x7b, 0x0a, 0x07, 0xbe, 0xc4, 0x6b, 0x40, 0xbc, 0x8c, 0x8b, 0x3a, 0xbd,
  0x57, 0x7b, 0x0e, 0x3e, 0x02, 0xfb, 0x32, 0xbd, 0x5d, 0x56, 0x2c, 0xbe,
  0x2e, 0xce, 0xd7, 0x3d, 0xf7, 0xda, 0x65, 0xbe, 0x00, 0x10, 0xa1, 0xbd,
  0xe8, 0x9e, 0xed, 0xbd, 0x1c, 0x5b, 0x8a, 0x3c, 0x1c, 0xe5, 0x0a, 0xbd,
  0xe0, 0xc2, 0x5d, 0xbe, 0xe2, 0xbe, 0x79, 0x3e, 0xd9, 0xf6, 0x34, 0xbe,
  0x42, 0xa4, 0x91, 0x3d, 0x78, 0x9f, 0x44, 0x3e, 0xc3, 0xd7, 0x9f, 0xbc,
  0xb0, 0xc0, 0x51, 0xbe, 0x7d, 0x8a, 0xa5, 0x3d, 0xe8, 0x78, 0x79, 0xbe,
  0x96, 0x45, 0x6c, 0xbe, 0xce, 0x44, 0x22, 0x3d, 0x01, 0x20, 0x85, 0x3d,
  0x8a, 0xa2, 0x98, 0xbd, 0xc3, 0x3b, 0xea, 0xbb, 0x96, 0x21, 0x70, 0xbd,
  0x92, 0xad, 0xe3, 0x3d, 0x24, 0xc8, 0x25, 0x3e, 0x49, 0x04, 0xfc, 0xbd,
  0xd8, 0x15, 0x07, 0x3c, 0x0f, 0x3a, 0x46, 0xbe, 0x65, 0x5a, 0x34, 0xbe,
  0x36, 0xd9, 0x5a, 0x3c, 0x20, 0xdd, 0xf8, 0xbd, 0x23, 0x59, 0xb8, 0xbd,
  0x75, 0x36, 0x2b, 0xbe, 0x15, 0x2f, 0xe9, 0xbc, 0xe4, 0xb4, 0x9c, 0x3d,
  0xbe, 0xd1, 0xa1, 0x3d, 0x30, 0x98, 0x84, 0xba, 0x3e, 0x7d, 0x3d, 0xbd,
  0xef, 0xe7, 0x4e, 0x3e, 0xd1, 0xcd, 0x70, 0x3d, 0x18, 0xeb, 0xff, 0x3d,
  0x1e, 0x7e, 0x7c, 0xbe, 0xec, 0xd8, 0x67, 0xbe, 0xb9, 0xba, 0x77, 0xbe,
  0xb8, 0x88, 0x1b, 0xbe, 0x2a, 0xf4, 0xf4, 0x3c, 0x90, 0x42, 0x00, 0x3d,
  0x40, 0x52, 0x9b, 0xbd, 0xd7, 0xf2, 0x12, 0x3e, 0xf9, 0x55, 0x06, 0x3d,
  0x54, 0x2f, 0x44, 0xbe, 0x48, 0xea, 0x5b, 0xbd, 0x55, 0x09, 0x37, 0x3e,
  0x3d, 0x3a, 0xbc, 0xbc, 0x03, 0x37, 0x60, 0xbe, 0x47, 0x27, 0x64, 0xbe,
  0xf6, 0xd0, 0xa7, 0xbd, 0xdf, 0xfb, 0xd2, 0xbd, 0x95, 0xae, 0x3c, 0x3e,
  0x00, 0xfb, 0x19, 0x3e, 0x8f, 0x6f, 0xa0, 0x3c, 0xee, 0xc5, 0x3c, 0xbe,
  0x4e, 0x9b, 0x4f, 0xbc, 0xa3, 0x34, 0x98, 0xbd, 0x93, 0xb5, 0xd3, 0x3d,
  0x5e, 0x36, 0x38, 0xbe, 0xbb, 0x07, 0x8a, 0xbe, 0x53, 0x80, 0x39, 0xbd,
  0x2d, 0x13, 0x39, 0x3e, 0x3c, 0x60, 0x97, 0xbd, 0x55, 0xe0, 0xca, 0x3d,
  0x1d, 0x83, 0x77, 0xbe, 0xeb, 0x2e, 0x81, 0xbd, 0x0c, 0x94, 0x1f, 0x3e,
  0xf3, 0x9f, 0x05, 0x3e, 0x0b, 0x22, 0xda, 0xbc, 0x89, 0xa3, 0x07, 0xbe,
  0x38, 0x58, 0x28, 0xbc, 0xe5, 0x33, 0x05, 0x3e, 0x70, 0x7f, 0x48, 0xbe,
  0xf2, 0x5a, 0x40, 0xbc, 0xe9, 0x08, 0x69, 0xbd, 0x7d, 0xe6, 0x99, 0xbd,
  0xed, 0x55, 0xed, 0xbd, 0xcf, 0xdf, 0xa9, 0x3d, 0x40, 0xd2, 0x1c, 0x3e,
  0x4b, 0x0d, 0x49, 0xbd, 0xa3, 0x37, 0x21, 0xbe, 0x8b, 0x5b, 0xae, 0xbd,
  0xce, 0x6b, 0x02, 0x3e, 0x0c, 0x12, 0x67, 0xbe, 0x77, 0x3a, 0x65, 0x3d,
  0xb1, 0x0a, 0x76, 0xbe, 0x82, 0xd8, 0x14, 0x3e, 0x2c, 0x6d, 0x92, 0xbd,
  0xd7, 0x98, 0x2c, 0xbe, 0x5d, 0xbc, 0x1e, 0xbd, 0x19, 0x64, 0x54, 0xbe,
  0xcb, 0xe2, 0x44, 0xbe, 0x6b, 0x66, 0xb6, 0xbd, 0xb0, 0xf5, 0xc7, 0xbd,
  0x54, 0x29, 0x77, 0xbe, 0x16, 0x1d, 0x49, 0x3d, 0x71, 0x42, 0xf4, 0x3d,
  0x7d, 0xa1, 0x32, 0xbe, 0xc2, 0x6a, 0x1a, 0x3c, 0x00, 0x7c, 0x2c, 0xbc,
  0xb9, 0x62, 0xfe, 0xbd, 0xb2, 0x45, 0x07, 0x3e, 0x0f, 0x96, 0x43, 0x3e,
  0xdf, 0x65, 0x6e, 0x3e, 0x02, 0xa6, 0x18, 0xbe, 0x55, 0x98, 0x0c, 0x3e,
  0x08, 0x47, 0x55, 0x3e, 0x9e, 0xea, 0x50, 0xbe, 0x97, 0xf0, 0xc0, 0x3d,
  0x88, 0x6c, 0xae, 0xbc, 0xe9, 0x57, 0x48, 0xbe, 0x58, 0x98, 0xda, 0xbd,
  0x2d, 0x5f, 0x3f, 0xbe, 0xa6, 0x6e, 0x83, 0x3d, 0x1d, 0x89, 0xfe, 0x3d,
  0x62, 0x87, 0x33, 0x3e, 0xf4, 0xd5, 0x99, 0xbd, 0x0d, 0xc2, 0x58, 0x3c,
  0x99, 0x5f, 0x6d, 0xbd, 0x3c, 0x71, 0x05, 0x3e, 0x07, 0x4a, 0x6c, 0xbe,
  0xe2, 0x53, 0x77, 0xbc, 0xe8, 0x8e, 0xcb, 0xbd, 0xcd, 0xdc, 0x51, 0x3c,
  0xad, 0xf4, 0x32, 0x3e, 0x7a, 0x8f, 0x05, 0x3e, 0x0d, 0x93, 0x9e, 0xbd,
  0xe5, 0x8c, 0x80, 0x3e, 0xe8, 0x22, 0x33, 0x3e, 0xde, 0x40, 0x61, 0xbe,
  0xc3, 0xf1, 0x17, 0xbe, 0x67, 0x7d, 0x38, 0x3e, 0x7f, 0xa1, 0x2e, 0xbd,
  0x1f, 0x8f, 0x33, 0xbe, 0x5b, 0x1e, 0x08, 0xbe, 0xfe, 0x74, 0xf7, 0xbd,
  0x9c, 0x87, 0x41, 0xbe, 0x37, 0x41, 0x9b, 0xbc, 0xac, 0x78, 0x2e, 0xbe,
  0x6c, 0x02, 0xb9, 0xbd, 0x20, 0xe7, 0xba, 0x3d, 0xd2, 0x47, 0x32, 0x3e,
  0x1a, 0xb4, 0xbb, 0xbd, 0xc8, 0xc0, 0x77, 0x3e, 0x99, 0xb6, 0x2b, 0x3d,
  0x1e, 0x7b, 0x2b, 0x3e, 0x81, 0x34, 0x7d, 0xbe, 0x78, 0x9d, 0x46, 0x3d,
  0xb0, 0x08, 0x4a, 0x3e, 0x2a, 0x74, 0xd7, 0xbd, 0x0a, 0x4d, 0x3d, 0x3e,
  0x8c, 0xfc, 0x14, 0x3e, 0x7c, 0x54, 0x50, 0x3e, 0xc8, 0x41, 0xbd, 0xbb,
  0x11, 0x43, 0x64, 0xbe, 0x9d, 0x57, 0x0d, 0x3e, 0xec, 0x4c, 0x9c, 0xbd,
  0x09, 0x22, 0xef, 0x3d, 0x7a, 0x69, 0x56, 0xbe, 0xf7, 0x37, 0x1e, 0xbe,
  0xbf, 0x84, 0x18, 0x3e, 0x82, 0x11, 0x26, 0xbe, 0x83, 0xef, 0x49, 0x3e,
  0x13, 0x85, 0x1d, 0x3e, 0x7f, 0x51, 0x72, 0xbd, 0x78, 0x99, 0xd3, 0xbd,
  0x10, 0x58, 0x2b, 0xbe, 0x29, 0x6c, 0xcb, 0x3d, 0x35, 0x0b, 0x6b, 0x3e,
  0x73, 0xde, 0x2a, 0xbe, 0x30, 0xf4, 0x72, 0xbe, 0x08, 0x7a, 0xaa, 0x3c,
  0xa4, 0x89, 0x70, 0x3e, 0x93, 0x5e, 0x30, 0x3e, 0xa6, 0xde, 0xb1, 0x3d,
  0x43, 0x10, 0x92, 0xbd, 0x68, 0xf9, 0x8d, 0xbd, 0xaf, 0xae, 0x5a, 0xbd,
  0xbc, 0x4c, 0x82, 0xbe, 0xdf, 0x23, 0x16, 0x3e, 0x06, 0x34, 0x13, 0xbd,
  0x8f, 0x43, 0x49, 0xbe, 0x19, 0x21, 0x65, 0xbe, 0xdf, 0xe7, 0x31, 0xbd,
  0xeb, 0xef, 0xdd, 0xbd, 0xb0, 0x44, 0x6c, 0x3c, 0x5e, 0x80, 0xd7, 0x3d,
  0xbb, 0x74, 0xd1, 0xbd, 0xe2, 0xd9, 0x4a, 0xbe, 0xc8, 0x5e, 0x27, 0x3d,
  0xb8, 0x93, 0x66, 0x3c, 0x7e, 0x0b, 0x47, 0x3e, 0xf1, 0x1f, 0x87, 0xbd,
  0x59, 0x7f, 0x0f, 0xbe, 0x5a, 0x03, 0xfe, 0x3d, 0xdd, 0xc3, 0x73, 0xbe,
  0x86, 0x93, 0x56, 0xbc, 0x68, 0x97, 0xc2, 0x3d, 0xc2, 0xed, 0x0c, 0x3e,
  0xbb, 0x2b, 0x9f, 0xbd, 0x33, 0x84, 0xd0, 0xbd, 0xe2, 0x6d, 0x0a, 0x3c,
  0x5f, 0x60, 0x48, 0x3d, 0x17, 0xb1, 0x17, 0x3e, 0x0a, 0xd7, 0xb1, 0xbc,
  0x90, 0x73, 0x80, 0xbd, 0x77, 0x35, 0xc2, 0x3d, 0xaf, 0x33, 0x2f, 0x3e,
  0x69, 0x2b, 0xd0, 0xbd, 0x77, 0x4f, 0x97, 0xbd, 0xfd, 0xbc, 0x4c, 0x3e,
  0xb7, 0x8b, 0x93, 0xbe, 0x9d, 0x09, 0xb2, 0x3d, 0xf1, 0x90, 0xa3, 0x3d,
  0x8d, 0x54, 0x2e, 0x3e, 0x84, 0x62, 0x5f, 0xbe, 0x78, 0x3d, 0xfa, 0x3d,
  0x02, 0xf1, 0x17, 0xbe, 0x73, 0x6b, 0x4a, 0x3e, 0xe2, 0x8b, 0x1e, 0xbe,
  0x4a, 0xc3, 0x29, 0x3d, 0xd8, 0x46, 0xc2, 0xbc, 0x4d, 0xb6, 0x26, 0x3e,
  0x7e, 0xf1, 0xd3, 0x3d, 0x48, 0xf6, 0x19, 0xbb, 0xf1, 0x7d, 0x95, 0xbc,
  0x02, 0x9b, 0x50, 0xbc, 0x92, 0xe2, 0x2f, 0x3d, 0x0a, 0x95, 0xa7, 0x3c,
  0x5c, 0x54, 0xb6, 0xbd, 0x73, 0x01, 0x81, 0xbd, 0xd8, 0x67, 0x48, 0xbe,
  0xe6, 0x37, 0xa1, 0xbd, 0x02, 0xb0, 0x2a, 0xbe, 0x6d, 0xf5, 0x01, 0xbd,
  0x09, 0xc3, 0x3b, 0x3e, 0x91, 0xab, 0x3e, 0x3e, 0xb2, 0x9f, 0x47, 0x3e,
  0x9b, 0x9f, 0xaa, 0xbd, 0xc0, 0xa6, 0x45, 0xbe, 0x18, 0xc3, 0x28, 0xbe,
  0x26, 0x04, 0xe6, 0xbd, 0x6a, 0xdb, 0x64, 0xbd, 0xec, 0xce, 0x0d, 0x3e,
  0xcc, 0x98, 0x7c, 0xbe, 0x96, 0xe3, 0x68, 0x3d, 0x4b, 0x2c, 0x0a, 0x3e,
  0x1d, 0x97, 0x4e, 0xbe, 0x06, 0x24, 0xbf, 0xbc, 0x55, 0x68, 0x75, 0xbe,
  0xab, 0x94, 0x47, 0x3e, 0x62, 0xc4, 0x28, 0x3e, 0x35, 0xeb, 0x00, 0x3d,
  0xc4, 0x96, 0x24, 0x3d, 0xfb, 0x98, 0x87, 0xbc, 0xbd, 0x58, 0x31, 0x3e,
  0x16, 0x93, 0x52, 0xbe, 0x0c, 0xc4, 0x54, 0x3c, 0xd2, 0x34, 0x2e, 0xbe,
  0x7c, 0xa3, 0x20, 0xbe, 0x51, 0x13, 0x59, 0x3d, 0x5c, 0x72, 0x84, 0xbe,
  0xc4, 0x03, 0x02, 0x3d, 0xb3, 0x56, 0x51, 0xbe, 0xdb, 0x71, 0x06, 0xbe,
  0x66, 0x79, 0x68, 0xbe, 0xd7, 0xaf, 0xa3, 0x3d, 0x66, 0xe5, 0x0e, 0x3d,
  0x93, 0x6b, 0xc8, 0xbd, 0x70, 0x41, 0x56, 0xbe, 0xb9, 0xd0, 0x60, 0x3e,
  0xf4, 0xe0, 0x5c, 0x3d, 0x4a, 0xce, 0x4e, 0x3e, 0xcc, 0x75, 0x25, 0xbe,
  0xf1, 0x22, 0x7f, 0xbe, 0x67, 0x0f, 0x5e, 0x3e, 0x22, 0xfa, 0x2a, 0xbe,
  0xbf, 0x1d, 0x17, 0x3e, 0x1f, 0x0d, 0x6c, 0x3e, 0x26, 0xe6, 0xce, 0x3d,
  0x10, 0x27, 0x70, 0xbd, 0x87, 0xb8, 0x66, 0xbd, 0xc3, 0x5c, 0x3c, 0x3d,
  0x7b, 0x50, 0xa8, 0xbd, 0x81, 0xc5, 0x40, 0xbe, 0xc2, 0x15, 0xe5, 0x3c,
  0xab, 0x56, 0xc5, 0xbd, 0x78, 0x87, 0x18, 0xbe, 0xf3, 0x71, 0xcb, 0x3d,
  0x80, 0xac, 0x82, 0x3d, 0x38, 0x11, 0x31, 0xbd, 0x31, 0xc7, 0x38, 0x3d,
  0x84, 0xbd, 0x22, 0xbe, 0x36, 0x16, 0xce, 0xbd, 0xee, 0xfb, 0x01, 0xbe,
  0xc9, 0x4f, 0xa3, 0x3d, 0xd8, 0xf8, 0xcc, 0xbd, 0x2a, 0x18, 0x67, 0x3e,
  0x29, 0xa6, 0x02, 0x3e, 0x3e, 0x1c, 0x3b, 0xbe, 0xaa, 0xfd, 0x9c, 0xbd,
  0xcd, 0x02, 0x0b, 0x3e, 0x77, 0x28, 0xa4, 0xbd, 0x7b, 0xd8, 0x5e, 0x3c,
  0xdf, 0xb0, 0x02, 0xbe, 0xa9, 0x6a, 0x06, 0x3d, 0x64, 0x4e, 0x65, 0x3e,
  0xcd, 0xc2, 0x01, 0x3c, 0xd5, 0x0b, 0x00, 0xbe, 0xf5, 0x80, 0x27, 0x3e,
  0xbc, 0x85, 0x06, 0xbd, 0x4a, 0xb0, 0x78, 0x3d, 0x77, 0x22, 0xb1, 0xbd,
  0x8c, 0xd2, 0x79, 0xbe, 0xed, 0xe5, 0x6d, 0x3d, 0x1b, 0xae, 0xc3, 0x3c,
  0x1d, 0x1e, 0xf6, 0x3d, 0x84, 0x9b, 0x53, 0xbe, 0x6a, 0xd3, 0x95, 0x3d,
  0x2a, 0xbf, 0xc3, 0x3d, 0xe3, 0x2e, 0x86, 0xbe, 0xb7, 0xcb, 0xf6, 0xbd,
  0x55, 0xf9, 0x0e, 0xbe, 0x83, 0xa0, 0x1e, 0xbd, 0x19, 0xea, 0x29, 0xbe,
  0xca, 0x2a, 0x33, 0xbe, 0x96, 0xe7, 0xe0, 0xbd, 0x51, 0xf1, 0x26, 0x3e,
  0xd5, 0x45, 0x7c, 0xbe, 0x2e, 0x60, 0x21, 0x3e, 0x27, 0xab, 0x6b, 0xbe,
  0x9f, 0x4d, 0xdc, 0xbd, 0x26, 0xc0, 0x85, 0xbd, 0x0a, 0x2f, 0x2b, 0x3e,
  0xf0, 0x17, 0x63, 0xbe, 0x12, 0x47, 0x0e, 0xbe, 0xe9, 0xf3, 0x5d, 0x3e,
  0x43, 0xbb, 0x31, 0x3e, 0xa6, 0x8b, 0x3e, 0xbe, 0xbd, 0x75, 0xaa, 0xbd,
  0x91, 0x56, 0x96, 0x3c, 0xd4, 0x39, 0x88, 0xbe, 0x62, 0xf4, 0x50, 0x3d,
  0x5e, 0x03, 0xb2, 0x3d, 0x49, 0x69, 0x64, 0x3e, 0xa2, 0xc2, 0xc5, 0xbc,
  0xfc, 0xa7, 0x3d, 0x3e, 0x83, 0xc4, 0x52, 0x3e, 0x30, 0x39, 0x7f, 0xbc,
  0x67, 0xbe, 0x4c, 0xbe, 0xd7, 0x75, 0x24, 0x3e, 0x7a, 0x8f, 0x0f, 0x3c,
  0xfd, 0xec, 0x33, 0xbe, 0xad, 0xb1, 0x00, 0xbe, 0x5a, 0xa0, 0x1c, 0x3e,
  0x7a, 0x85, 0x43, 0x3e, 0xc8, 0x69, 0x84, 0xbe, 0x70, 0x39, 0x8f, 0xbd,
  0xba, 0x4b, 0x13, 0x3e, 0xaa, 0xa4, 0x72, 0x3d, 0x4b, 0x19, 0x8c, 0x3d,
  0xaf, 0x4d, 0x0d, 0xbe, 0x19, 0x9e, 0x41, 0xbe, 0x78, 0xc1, 0xef, 0xbd,
  0xbb, 0x47, 0x36, 0xbe, 0x6d, 0x5e, 0x69, 0xbe, 0xe1, 0x27, 0x06, 0xbe,
  0x75, 0x8b, 0x39, 0xbe, 0xb6, 0x58, 0xfa, 0x3d, 0x56, 0x53, 0x7e, 0xbe,
  0xe5, 0xed, 0xc0, 0x3d, 0x58, 0x02, 0xdd, 0x3d, 0x2a, 0x80, 0x73, 0xbe,
  0x0c, 0xdd, 0x3d, 0xbe, 0x63, 0x54, 0x3d, 0x3d, 0x50, 0x15, 0xfd, 0x3d,
  0xc8, 0xa1, 0x37, 0x3d, 0xa3, 0x5d, 0x32, 0xbe, 0x3f, 0x8e, 0xb1, 0xbd,
  0xe2, 0x31, 0x32, 0xbd, 0x18, 0xa6, 0x8b, 0x3d, 0x6d, 0x4c, 0xb0, 0xbd,
  0xfc, 0x6f, 0x95, 0x3b, 0xb4, 0x10, 0x7a, 0xbd, 0xf7, 0x78, 0x51, 0xbe,
  0xfa, 0x49, 0x22, 0x3e, 0xc6, 0xe8, 0x13, 0xbe, 0xe9, 0xa9, 0x1c, 0x3e,
  0xda, 0x31, 0xd1, 0xbd, 0xc8, 0x05, 0x36, 0x3e, 0xd1, 0x5e, 0xae, 0x3d,
  0x89, 0xfe, 0x0a, 0xbe, 0x13, 0xfa, 0x22, 0xbe, 0xda, 0xb4, 0x12, 0xbe,
  0xe9, 0x14, 0x15, 0xbe, 0x90, 0x4f, 0x65, 0x3d, 0xd4, 0x06, 0x86, 0x3d,
  0xbb, 0x45, 0x6d, 0xbd, 0x2c, 0xeb, 0x2f, 0x3e, 0xad, 0xd4, 0x7a, 0xbe,
  0xcc, 0x53, 0x73, 0xbe, 0xd4, 0xba, 0x09, 0x3e, 0x28, 0x1c, 0xdb, 0x3d,
  0xc5, 0xa5, 0x80, 0x3b, 0xef, 0xb0, 0x13, 0xbd, 0x54, 0x04, 0x22, 0x3e,
  0x69, 0x1b, 0xec, 0xbd, 0xf1, 0xfd, 0x4b, 0x3d, 0x2e, 0xf3, 0x56, 0x3e,
  0x62, 0x34, 0x6b, 0xbe, 0xaf, 0x01, 0xd0, 0x3d, 0x1a, 0x61, 0x4d, 0x3e,
  0xd3, 0xe5, 0x91, 0xbd, 0xf0, 0x99, 0x0b, 0x3d, 0x57, 0x27, 0xb4, 0xbd,
  0x9a, 0xc7, 0x3f, 0x3e, 0x75, 0x95, 0x90, 0xbd, 0x79, 0x7d, 0x86, 0xbe,
  0xa0, 0x74, 0x80, 0xbb, 0x89, 0x70, 0xb5, 0xbd, 0x35, 0xe6, 0x50, 0xbe,
  0x43, 0xc7, 0x6b, 0x3e, 0x77, 0x4c, 0x6b, 0xbe, 0x14, 0xd5, 0xa1, 0x3d,
  0x0a, 0x79, 0x98, 0xbd, 0xb7, 0x60, 0xe9, 0x3d, 0x27, 0xd8, 0x70, 0x3e,
  0x83, 0xb3, 0xe1, 0xbd, 0xf6, 0xf6, 0x26, 0x3e, 0xcf, 0xcf, 0x2d, 0x3d,
  0xc1, 0xc0, 0xac, 0xbd, 0x61, 0x45, 0x92, 0xbe, 0xaf, 0x7c, 0x2b, 0xbe,
  0x7d, 0xc0, 0x1b, 0xbe, 0xfe, 0x77, 0xfc, 0x3c, 0x50, 0x0d, 0xb5, 0x3b,
  0xec, 0x71, 0x4f, 0x3e, 0x35, 0x30, 0x3e, 0xbe, 0xf7, 0xed, 0x7c, 0xbe,
  0xb0, 0xa0, 0xbe, 0x3d, 0xd5, 0x14, 0x31, 0x3d, 0x97, 0x69, 0xb7, 0xbc,
  0x43, 0xde, 0xf4, 0x3c, 0x20, 0x70, 0xb2, 0xbd, 0xfe, 0x1c, 0x61, 0x3e,
  0x4d, 0xe6, 0xca, 0xbc, 0x3d, 0xc7, 0x0a, 0xbe, 0xc6, 0xe6, 0x33, 0xbe,
  0x91, 0x2b, 0xed, 0x3b, 0xab, 0x0a, 0x28, 0xbe, 0xc4, 0x89, 0xef, 0xbc,
  0x4a, 0x62, 0x91, 0xbd, 0x29, 0x45, 0xa7, 0x3d, 0x9e, 0x33, 0x1f, 0xbe,
  0xe4, 0x3d, 0x78, 0xbd, 0xc4, 0x13, 0x82, 0x3d, 0x61, 0x6b, 0x1d, 0xbe,
  0xc6, 0x33, 0x4c, 0x3e, 0xae, 0xf3, 0x36, 0xbe, 0xbb, 0xbf, 0x40, 0x3c,
  0xd9, 0x8f, 0x13, 0x3e, 0x70, 0x77, 0x2d, 0xbe, 0x93, 0x70, 0xf9, 0x3d,
  0x4e, 0x67, 0x93, 0xbc, 0x8e, 0xf0, 0x26, 0x3e, 0x48, 0x51, 0xfd, 0x3d,
  0x13, 0xb0, 0xc5, 0x3d, 0x0c, 0xf7, 0x34, 0x3e, 0xa5, 0x85, 0x6a, 0xbc,
  0xb8, 0x88, 0x1b, 0xbe, 0x78, 0x78, 0x25, 0x3e, 0x0e, 0xd7, 0x48, 0xbe,
  0x68, 0x1b, 0x22, 0x3d, 0x5e, 0x32, 0x4d, 0xbd, 0x36, 0xdb, 0x95, 0x3d,
  0x8f, 0xd8, 0x96, 0x3d, 0x30, 0x2a, 0x82, 0x3d, 0x45, 0x05, 0x92, 0x3c,
  0xb1, 0x42, 0xdf, 0xbd, 0x32, 0xc3, 0x88, 0xbd, 0xe3, 0x1b, 0x79, 0x3c,
  0x10, 0x7e, 0x20, 0xbc, 0xfc, 0x80, 0xf7, 0xbd, 0xb3, 0xab, 0x6c, 0x3e,
  0x80, 0x51, 0x44, 0xbd, 0x00, 0x00, 0x00, 0x00, 0xa6, 0xed, 0xff, 0xff,
  0x04, 0x00, 0x00, 0x00, 0x80, 0x01, 0x00, 0x00, 0x73, 0x9e, 0xb3, 0x3b,
  0x38, 0x96, 0x06, 0xbe, 0xfd, 0xbb, 0x37, 0x3e, 0xce, 0x84, 0x33, 0x3e,
  0x4f, 0xd5, 0x39, 0xbe, 0xe1, 0xf0, 0xca, 0x3c, 0x21, 0x01, 0xef, 0xbd,
  0xd6, 0xec, 0xa9, 0x3d, 0xc3, 0x9c, 0xb3, 0xbd, 0x87, 0x63, 0x0d, 0xbe,
  0x50, 0x70, 0x56, 0x3e, 0xef, 0x34, 0x22, 0xbd, 0xe2, 0x65, 0x0f, 0x3e,
  0x91, 0x9d, 0x8e, 0xbd, 0x74, 0xdf, 0x28, 0xbe, 0xa7, 0xee, 0xca, 0x3d,
  0x63, 0x4e, 0xc0, 0xbd, 0x1f, 0x1e, 0x76, 0xbb, 0x16, 0x66, 0xbe, 0x3b,
  0x7f, 0x6a, 0x1b, 0x3e, 0xea, 0xf2, 0xf0, 0x3d, 0xd0, 0x4f, 0x31, 0xbd,
  0xfd, 0x8f, 0x3a, 0xbe, 0x09, 0xe3, 0x17, 0xbe, 0x7f, 0x00, 0xa3, 0x3c,
  0xa1, 0x69, 0x73, 0xbd, 0xf5, 0x04, 0x36, 0xbd, 0x42, 0x2f, 0x53, 0x3e,
  0x17, 0x79, 0x33, 0x3e, 0x1d, 0x6d, 0x90, 0x3d, 0xa3, 0x72, 0x15, 0x3e,
  0x3a, 0xee, 0xd0, 0xbd, 0x90, 0x93, 0x21, 0x3d, 0x6d, 0x28, 0x05, 0x3e,
  0xf4, 0x3f, 0xf7, 0x3d, 0x24, 0x5a, 0x40, 0xbe, 0xff, 0xcb, 0x8d, 0x39,
  0x9c, 0x83, 0x4c, 0x3e, 0x7d, 0xaa, 0xb4, 0xbd, 0x10, 0xe5, 0x50, 0x3e,
  0x8b, 0xec, 0x99, 0xbd, 0xf2, 0x20, 0x4f, 0xbe, 0xf0, 0xba, 0x84, 0x3d,
  0xfe, 0x1b, 0x06, 0xbe, 0x05, 0x54, 0x84, 0x3d, 0xe6, 0xb7, 0x44, 0x3d,
  0x70, 0xce, 0x4b, 0xbd, 0x6c, 0xa9, 0x44, 0x3d, 0xe1, 0xb0, 0xb0, 0xb9,
  0x48, 0xa9, 0x38, 0xbe, 0x23, 0x8b, 0x15, 0x3e, 0x7c, 0x93, 0x60, 0x3d,
  0x95, 0x69, 0x53, 0x3d, 0x6c, 0xf2, 0x6e, 0x3e, 0x31, 0x08, 0x61, 0x3e,
  0x3c, 0xbe, 0x12, 0xbe, 0x57, 0x1c, 0x9e, 0xbd, 0xbc, 0x2a, 0xdb, 0x3c,
  0x91, 0x0a, 0x49, 0xbd, 0x83, 0x89, 0x25, 0xbe, 0xac, 0xfb, 0x18, 0x3e,
  0x9b, 0xb5, 0xa7, 0xbc, 0x21, 0x50, 0xc9, 0x3c, 0xd3, 0xc0, 0x08, 0xbe,
  0x93, 0xdd, 0x5b, 0x3d, 0x2a, 0x80, 0xf7, 0x3d, 0x1c, 0x9b, 0x29, 0xbd,
  0x00, 0x35, 0xf2, 0xbd, 0xeb, 0x8d, 0x09, 0xbe, 0x5a, 0x62, 0x82, 0xbc,
  0x0b, 0x34, 0x02, 0xbe, 0x36, 0xbb, 0x24, 0x3e, 0xe6, 0x62, 0xd2, 0x3d,
  0xf8, 0xb2, 0x92, 0xbc, 0x74, 0x82, 0x15, 0xbe, 0x77, 0x18, 0xe5, 0x3d,
  0xb9, 0x2d, 0x8e, 0xbd, 0x70, 0xde, 0x77, 0x3d, 0x5f, 0x8f, 0x0e, 0x3e,
  0xed, 0xb8, 0xaf, 0xbd, 0x89, 0x14, 0x31, 0xbe, 0xcc, 0x4f, 0x59, 0x3d,
  0x52, 0x4f, 0x03, 0xbe, 0x7a, 0xbc, 0x04, 0x3e, 0x1c, 0x70, 0xd4, 0x3d,
  0x89, 0x6f, 0xf6, 0xbd, 0x80, 0xd8, 0x83, 0xbe, 0x4c, 0xa0, 0x42, 0xbe,
  0x42, 0x48, 0x64, 0xbe, 0xf0, 0xa6, 0x18, 0x3e, 0xa5, 0x8d, 0x10, 0x3c,
  0x45, 0xfa, 0x46, 0x3e, 0xb3, 0xf2, 0x28, 0x3e, 0xa5, 0xe4, 0x1f, 0x3d,
  0xe2, 0x42, 0xc9, 0x3d, 0xcf, 0x52, 0x24, 0x3e, 0x00, 0x00, 0x00, 0x00,
  0x36, 0xef, 0xff, 0xff, 0x04, 0x00, 0x00, 0x00, 0x00, 0x01, 0x00, 0x00,
  0xb9, 0xb4, 0xb5, 0xbe, 0x97, 0xf7, 0xf7, 0x3e, 0x9e, 0xaf, 0x60, 0x3e,
  0x08, 0xc1, 0xde, 0x3e, 0x0a, 0x29, 0xf7, 0x3e, 0xbb, 0x14, 0x45, 0x3c,
  0xe2, 0xd1, 0x76, 0xbd, 0x2e, 0xd4, 0xee, 0xbe, 0xc5, 0xdd, 0x82, 0x3c,
  0x51, 0x11, 0x99, 0xbd, 0x4c, 0x86, 0xa6, 0xbe, 0xe7, 0x9a, 0xe2, 0xbe,
  0xc9, 0x9e, 0x18, 0xbd, 0xa8, 0xaa, 0xd0, 0xbe, 0xd6, 0x8d, 0x8f, 0xbe,
  0xb6, 0x3a, 0x15, 0xbe, 0xf3, 0xe2, 0x30, 0xbe, 0x6b, 0x66, 0x00, 0xbf,
  0x3e, 0x7d, 0xf4, 0xbe, 0xcd, 0xa1, 0x08, 0x3f, 0x6f, 0x37, 0xa2, 0x3e,
  0x94, 0xab, 0x2a, 0xba, 0xa0, 0xc9, 0x9f, 0xbe, 0x6b, 0x49, 0x94, 0xbe,
  0x46, 0x9b, 0xd1, 0xbe, 0xab, 0x02, 0xcc, 0xbe, 0x2d, 0xfd, 0xfc, 0xbd,
  0x78, 0x79, 0xb0, 0x3e, 0x55, 0xa7, 0xa9, 0xbd, 0xa2, 0xab, 0x64, 0xbe,
  0x7b, 0xe2, 0xfd, 0xbe, 0x2c, 0x7b, 0xc3, 0x3e, 0x3c, 0x17, 0xaf, 0xbe,
  0xbc, 0x95, 0x8f, 0xbe, 0x3b, 0x78, 0xd2, 0xbe, 0x34, 0x58, 0x22, 0xbe,
  0xaf, 0x91, 0x91, 0xbe, 0xbe, 0x85, 0x57, 0xbe, 0x00, 0x1c, 0xa8, 0x3d,
  0x62, 0x4c, 0xd5, 0x3d, 0x44, 0x41, 0xe6, 0xbe, 0xb4, 0xec, 0x9e, 0x3e,
  0x5f, 0xed, 0xa6, 0x3e, 0x0e, 0xaa, 0xdb, 0x3e, 0xfa, 0xfe, 0xda, 0xbe,
  0x3e, 0xd4, 0xae, 0xbe, 0xa3, 0x7b, 0xa0, 0xbd, 0xa5, 0x0a, 0x77, 0x3e,
  0x55, 0xbe, 0x67, 0xbe, 0x8f, 0xe0, 0x7b, 0x3d, 0x6f, 0x7d, 0xa7, 0xbe,
  0x6d, 0xa8, 0x0a, 0xbe, 0x28, 0xe5, 0xa8, 0xbe, 0x76, 0xf9, 0x68, 0x3e,
  0x13, 0xb3, 0x07, 0x3f, 0xf4, 0x27, 0x85, 0xbe, 0x74, 0xa7, 0xc2, 0xbe,
  0x3f, 0x38, 0xd8, 0x3d, 0x34, 0x14, 0x12, 0x3e, 0x2e, 0x11, 0x0a, 0x3f,
  0x67, 0xce, 0xd7, 0xbe, 0x0b, 0x94, 0x01, 0x3e, 0x33, 0x86, 0x82, 0xbe,
  0x3b, 0xe5, 0x06, 0x3f, 0x00, 0x00, 0x00, 0x00, 0x46, 0xf0, 0xff, 0xff,
  0x04, 0x00, 0x00, 0x00, 0x00, 0x0e, 0x00, 0x00, 0xcb, 0x3a, 0xbe, 0x35,
  0xb8, 0x0f, 0x3e, 0xe9, 0xa2, 0xfa, 0xc9, 0xbb, 0x33, 0xf9, 0x40, 0xf7,
  0x52, 0x0e, 0x9d, 0x2c, 0x10, 0xb7, 0xac, 0xd7, 0x2a, 0xbe, 0xdb, 0xe9,
  0xb5, 0xc1, 0xe3, 0x9f, 0xbb, 0x06, 0xa7, 0xba, 0xe9, 0xa1, 0x1c, 0x38,
  0xe1, 0x34, 0xa8, 0xd1, 0x19, 0x2c, 0x02, 0x2f, 0xa9, 0xbb, 0x3e, 0xdc,
  0x08, 0x43, 0x30, 0xca, 0x0c, 0xc1, 0xae, 0xd3, 0x17, 0x12, 0xbf, 0xd1,
  0xf4, 0x3e, 0xd5, 0xaf, 0x9e, 0xaf, 0xe0, 0xa8, 0x9d, 0x08, 0xef, 0xfc,
  0xdf, 0xa9, 0x9e, 0xce, 0x1a, 0x03, 0x4e, 0x44, 0xec, 0x43, 0x1e, 0xb0,
  0x04, 0xee, 0x12, 0xe3, 0xf1, 0xa7, 0xf6, 0x3e, 0x3b, 0xe8, 0x19, 0xbe,
  0x28, 0xde, 0x43, 0x11, 0x02, 0xea, 0xc3, 0xa9, 0x4e, 0xa4, 0xf3, 0xbd,
  0xfd, 0xdf, 0xd9, 0xd7, 0x9b, 0x33, 0x11, 0xd3, 0x34, 0x16, 0x20, 0x46,
  0x48, 0xb0, 0x0e, 0x1d, 0x3c, 0x9e, 0x03, 0x2b, 0x1f, 0x4b, 0xc9, 0x06,
  0xda, 0x1d, 0xec, 0xa7, 0x4e, 0x4a, 0x40, 0x4d, 0xba, 0x17, 0x10, 0x3d,
  0x23, 0xb4, 0xb1, 0xa2, 0xcc, 0xfc, 0xb9, 0xbf, 0x2e, 0xd7, 0xa6, 0x12,
  0x2a, 0xf4, 0xb1, 0xfe, 0x16, 0x4a, 0xb8, 0xd4, 0x4f, 0x30, 0xf9, 0xe3,
  0x11, 0x11, 0xbf, 0xfc, 0x2d, 0x4d, 0xf5, 0x14, 0x1f, 0xa9, 0xd9, 0xdf,
  0xe5, 0x1b, 0x1d, 0xce, 0x32, 0xa2, 0x15, 0xb2, 0x2c, 0x51, 0x2d, 0x2f,
  0x05, 0xa6, 0x43, 0x2a, 0x0c, 0x44, 0xb0, 0xeb, 0xfc, 0x53, 0x19, 0x29,
  0x59, 0xb7, 0xa9, 0x44, 0xd2, 0xae, 0x4e, 0xe4, 0xf1, 0xe2, 0xe9, 0xcf,
  0x22, 0x0a, 0x48, 0xfb, 0xdb, 0xe4, 0x1f, 0xb5, 0x17, 0xb0, 0x61, 0xbd,
  0xcf, 0x3f, 0xfa, 0xf4, 0xcd, 0x34, 0xcc, 0xf6, 0xe3, 0x19, 0xfb, 0x1f,
  0xbc, 0x39, 0x25, 0xcb, 0x53, 0xd3, 0xdb, 0xaf, 0x44, 0xa9, 0xc1, 0xf5,
  0xb7, 0x3b, 0xe0, 0xcf, 0xe3, 0xf6, 0x4f, 0x1d, 0x4f, 0x9c, 0xe2, 0x4f,
  0x3d, 0xa9, 0xb7, 0x02, 0xc2, 0xb2, 0x39, 0xba, 0x16, 0x56, 0x4a, 0x19,
  0xcc, 0xa5, 0xd4, 0xfe, 0xf9, 0xc6, 0x50, 0xcf, 0xf8, 0x02, 0x5f, 0x51,
  0xff, 0x43, 0x04, 0xda, 0x14, 0x0b, 0xb9, 0xea, 0x0b, 0x2f, 0xd7, 0xed,
  0xb4, 0xc0, 0x00, 0xa8, 0x1b, 0x2e, 0x33, 0x57, 0x5c, 0xfc, 0xe9, 0x3d,
  0xa7, 0xec, 0xc5, 0xb7, 0xe6, 0xf6, 0x64, 0x33, 0xae, 0x24, 0xc2, 0xbb,
  0x64, 0xed, 0xe1, 0x1a, 0x3f, 0x60, 0x4d, 0xd7, 0x33, 0xc7, 0xd3, 0x09,
  0x06, 0x01, 0xb4, 0xbf, 0xc3, 0x4d, 0x0a, 0xe6, 0xbc, 0x3c, 0x16, 0x21,
  0x3f, 0x9f, 0x47, 0xc1, 0xd3, 0x31, 0xd2, 0xeb, 0xf3, 0xe8, 0x13, 0x55,
  0xb8, 0x38, 0x13, 0xa0, 0xd7, 0x54, 0x65, 0x38, 0xc1, 0x1f, 0x40, 0xa5,
  0x10, 0xd1, 0x10, 0x14, 0x9d, 0xa6, 0x62, 0xf7, 0x05, 0x35, 0xb6, 0x05,
  0x1b, 0xcf, 0x26, 0xae, 0xcf, 0x10, 0x58, 0x28, 0x0a, 0xc3, 0xea, 0x07,
  0xca, 0xb3, 0x40, 0xce, 0xea, 0xf7, 0x1e, 0xbb, 0x3d, 0x37, 0xad, 0x47,
  0x12, 0x37, 0xbf, 0x30, 0x0e, 0x59, 0x1e, 0x51, 0x01, 0xaf, 0xce, 0x09,
  0x4d, 0xd5, 0xdd, 0xfb, 0x9e, 0x1e, 0x16, 0x0a, 0xcf, 0x4b, 0x40, 0x30,
  0x1a, 0xc2, 0xcb, 0x0c, 0x0a, 0xfa, 0x25, 0xa0, 0x4b, 0xba, 0xfa, 0xb6,
  0xb2, 0x4a, 0xc0, 0x43, 0x0c, 0x39, 0xd5, 0x0c, 0x43, 0xa2, 0x41, 0x01,
  0xdb, 0x08, 0x53, 0x26, 0x13, 0x1e, 0xac, 0x09, 0xa7, 0xfa, 0x4d, 0x3e,
  0xe6, 0x40, 0x24, 0x0c, 0x52, 0x39, 0xf0, 0x9f, 0xb4, 0xfc, 0x0c, 0xcc,
  0x3f, 0xd3, 0x27, 0xa5, 0x1c, 0x39, 0xaf, 0xa7, 0x10, 0xa2, 0x46, 0xf4,
  0xc5, 0xe0, 0x4a, 0xf4, 0xc0, 0xd9, 0x15, 0xd4, 0xad, 0x43, 0xd8, 0x1a,
  0xb9, 0xdd, 0xe2, 0x3a, 0xf9, 0xc5, 0xba, 0xa6, 0x26, 0xc1, 0x3d, 0xe9,
  0xa4, 0xfb, 0x19, 0x19, 0xa8, 0xd1, 0xd8, 0xfc, 0xb1, 0xb2, 0x28, 0xda,
  0x32, 0xd0, 0x28, 0xa7, 0x1b, 0x0b, 0xba, 0x3f, 0xd6, 0x20, 0xdf, 0xf6,
  0xca, 0x2e, 0x18, 0xd7, 0x1e, 0xfd, 0xe5, 0xfc, 0x35, 0x39, 0x46, 0xf1,
  0xce, 0x03, 0xd2, 0x37, 0xf7, 0x14, 0x4e, 0xd3, 0x26, 0xeb, 0x3a, 0xa7,
  0x37, 0x23, 0x50, 0xc8, 0x41, 0xe1, 0xfd, 0xb0, 0xa7, 0x3f, 0x2d, 0xaf,
  0x4e, 0xbc, 0xa8, 0x39, 0xe0, 0xc5, 0x11, 0xab, 0x17, 0xb0, 0xd9, 0x4d,
  0xd1, 0xba, 0xec, 0xcc, 0x24, 0x04, 0xa7, 0xf6, 0x4b, 0x48, 0x44, 0x34,
  0x3b, 0xd2, 0xc3, 0xbb, 0xfe, 0xc2, 0xb1, 0x38, 0xfe, 0x4d, 0x46, 0x24,
  0xfe, 0x3b, 0xf3, 0x47, 0x17, 0xd5, 0x2f, 0x31, 0x35, 0x1e, 0x4b, 0xaa,
  0x9a, 0xb5, 0xc2, 0xc2, 0xe3, 0x50, 0xc6, 0xb2, 0xe1, 0xc1, 0xec, 0x43,
  0xb1, 0xc9, 0xab, 0xf9, 0xfa, 0xf4, 0xed, 0xac, 0xf5, 0x23, 0xa4, 0x50,
  0x25, 0x52, 0xb6, 0x30, 0x1a, 0x1d, 0xb8, 0x00, 0x9b, 0x22, 0xd4, 0xa0,
  0xe0, 0x30, 0xfd, 0xf6, 0x49, 0xdf, 0xcd, 0xd2, 0xf7, 0x26, 0xf8, 0x48,
  0xf1, 0xf1, 0xef, 0x4b, 0xe4, 0x4f, 0xef, 0xa3, 0xc6, 0x3b, 0x49, 0x27,
  0x45, 0x35, 0x18, 0x36, 0xe1, 0xab, 0xe2, 0xe5, 0xcb, 0xf7, 0x3e, 0x10,
  0xc5, 0x3c, 0x37, 0x92, 0xc1, 0x01, 0xe4, 0x18, 0xf1, 0x41, 0x3b, 0x30,
  0xdd, 0xe4, 0x05, 0x3c, 0x04, 0xc6, 0x05, 0xd0, 0x16, 0x1c, 0x24, 0x2f,
  0xd5, 0x12, 0xea, 0xbc, 0xee, 0xfc, 0x4a, 0xf1, 0xea, 0x03, 0x3b, 0xdc,
  0xc0, 0x9e, 0xd3, 0x55, 0xe5, 0xd5, 0x24, 0xfd, 0xdb, 0x1a, 0x4d, 0xc4,
  0x2a, 0xcc, 0xfe, 0xd3, 0x02, 0xa7, 0x34, 0x15, 0xd8, 0xa3, 0x0d, 0xdd,
  0x1c, 0xd7, 0x11, 0xa6, 0xc1, 0xa6, 0xfc, 0xde, 0x2c, 0xf3, 0xe3, 0x37,
  0x47, 0xe1, 0x0a, 0xae, 0x54, 0xf3, 0x24, 0x20, 0xc3, 0x16, 0x3f, 0x42,
  0x4f, 0xcc, 0xb0, 0xf9, 0xc3, 0xa0, 0xbf, 0x05, 0xf8, 0x10, 0x2e, 0x1a,
  0x29, 0x01, 0x2f, 0x0d, 0xb8, 0xb7, 0x4c, 0x58, 0xcf, 0xdb, 0xfd, 0xcc,
  0xb2, 0x49, 0x45, 0xeb, 0xd3, 0x57, 0x4f, 0xbf, 0xa7, 0x24, 0xa5, 0xe6,
  0x22, 0x00, 0x2f, 0x37, 0x4c, 0x32, 0x20, 0xc5, 0xdd, 0x2a, 0xaa, 0x0a,
  0x4a, 0xd0, 0x2e, 0xb5, 0xed, 0x2f, 0xb7, 0x38, 0xbb, 0xae, 0xb5, 0x2f,
  0x03, 0x47, 0x16, 0x19, 0x0d, 0xc7, 0x49, 0x35, 0x22, 0x1f, 0x42, 0x08,
  0x43, 0x14, 0x45, 0xcf, 0xc1, 0xad, 0x22, 0xfd, 0x1a, 0xd2, 0x11, 0x47,
  0xa5, 0xc4, 0x3e, 0x2f, 0xac, 0xb5, 0xca, 0x10, 0xb5, 0xf2, 0xcb, 0xdd,
  0xd5, 0xad, 0x5c, 0xcb, 0xe2, 0xff, 0xf5, 0x32, 0xd5, 0x3e, 0xa2, 0xfd,
  0xba, 0x29, 0x46, 0x3d, 0x3e, 0xdf, 0x37, 0xba, 0x29, 0x07, 0xfc, 0x33,
  0xf6, 0xaa, 0xc1, 0xc4, 0x1b, 0x3d, 0xcf, 0xfa, 0x1b, 0x39, 0x3c, 0xd4,
  0x40, 0x4f, 0x2e, 0xdf, 0x09, 0x4f, 0xc0, 0x03, 0x49, 0xff, 0x16, 0xe6,
  0xa1, 0xb1, 0xc4, 0xd4, 0xe0, 0x22, 0xd6, 0xd0, 0xf1, 0x15, 0x14, 0xe2,
  0x50, 0xb4, 0x29, 0x45, 0xec, 0x1c, 0x10, 0x0d, 0x1d, 0x1d, 0x23, 0x2e,
  0xf2, 0xea, 0x51, 0x21, 0x0f, 0x48, 0x31, 0x20, 0x1e, 0xd7, 0xae, 0x35,
  0xff, 0x48, 0x1b, 0xf5, 0x3f, 0x49, 0xe9, 0xff, 0x0a, 0xcc, 0x9e, 0xbf,
  0x3e, 0xc7, 0xa2, 0x2c, 0xea, 0xea, 0x3f, 0x30, 0x50, 0xf5, 0xae, 0xf3,
  0x38, 0x50, 0xa9, 0xf3, 0x1f, 0xbd, 0xde, 0x10, 0xbf, 0x14, 0x29, 0xf7,
  0xbe, 0xf4, 0x11, 0xb0, 0xf7, 0x49, 0xc3, 0xc5, 0x1b, 0x50, 0x53, 0x54,
  0xc2, 0xef, 0xd5, 0xb1, 0xc9, 0xed, 0xaa, 0xc6, 0xdc, 0x11, 0xcc, 0xe2,
  0x32, 0xaa, 0x9e, 0x13, 0x00, 0x1c, 0x22, 0xb9, 0x07, 0x4f, 0x31, 0x3a,
  0xf3, 0x29, 0xd2, 0x04, 0x4b, 0xbc, 0x26, 0xe4, 0x06, 0xf5, 0xe9, 0x3b,
  0x26, 0x50, 0x4a, 0x42, 0x1e, 0xbd, 0xbb, 0xbf, 0xe7, 0xe3, 0xfe, 0xf0,
  0x2f, 0x4b, 0xac, 0xdb, 0xdb, 0xb6, 0xf8, 0x1b, 0xe5, 0x4a, 0x9f, 0x3f,
  0x28, 0xc3, 0xc9, 0xc2, 0x18, 0xc0, 0xac, 0xe2, 0x27, 0x24, 0x4c, 0x02,
  0xbf, 0x51, 0x33, 0x9c, 0x31, 0x46, 0xe1, 0xc3, 0xd8, 0xa1, 0xbf, 0x25,
  0x4d, 0xac, 0x46, 0xd1, 0x3e, 0xcb, 0xed, 0xf0, 0xdc, 0x32, 0xc7, 0xb8,
  0xbb, 0xe2, 0xc8, 0x18, 0x0c, 0x0c, 0xd2, 0x37, 0xb6, 0xa8, 0xb3, 0xe1,
  0x08, 0x1e, 0xbb, 0xef, 0xf4, 0xda, 0xb2, 0xd7, 0x1e, 0xdc, 0xc1, 0x27,
  0xcd, 0xef, 0x2b, 0x54, 0x03, 0x40, 0xf9, 0x33, 0xf4, 0x26, 0x2d, 0xf1,
  0xf4, 0x39, 0xb6, 0x39, 0xb4, 0x45, 0xf9, 0xfd, 0xa5, 0xe7, 0x14, 0xfd,
  0xc1, 0x37, 0xe8, 0xe8, 0x4f, 0xd5, 0x05, 0x0d, 0xc5, 0x29, 0xcd, 0xe1,
  0xe0, 0x3d, 0xab, 0x18, 0x41, 0x2f, 0x32, 0x45, 0x16, 0x2b, 0xa7, 0x46,
  0xf0, 0xa4, 0x57, 0xd6, 0x16, 0x4c, 0x30, 0xb3, 0xb6, 0xd1, 0x24, 0x49,
  0xe9, 0xb1, 0x03, 0xad, 0xac, 0x49, 0xbe, 0xc2, 0xe0, 0xa5, 0xc7, 0xcf,
  0xf4, 0x4a, 0xfa, 0x3a, 0xe7, 0xbc, 0x3e, 0x4d, 0x29, 0x1e, 0xe2, 0xcd,
  0xd7, 0xe9, 0x3e, 0x42, 0xb4, 0x20, 0x18, 0x41, 0x5c, 0xb0, 0xfd, 0x25,
  0x43, 0xbd, 0xf3, 0xdf, 0xd2, 0xbd, 0xce, 0xd3, 0xd9, 0xdb, 0x2a, 0xa5,
  0x2e, 0x22, 0x16, 0x31, 0x3a, 0x14, 0xe5, 0x32, 0x47, 0x0b, 0xa2, 0x1a,
  0xc9, 0xf9, 0xaf, 0xa7, 0xf5, 0x57, 0x50, 0xac, 0xc4, 0x4e, 0xf7, 0x52,
  0x46, 0xd0, 0x0f, 0x36, 0xb4, 0x24, 0xf3, 0x54, 0xd3, 0xd7, 0xb3, 0xca,
  0x13, 0xe8, 0xa7, 0x22, 0x58, 0x24, 0x12, 0xb2, 0x4b, 0x3f, 0xdf, 0xaa,
  0xc1, 0xc5, 0x22, 0x0d, 0x53, 0xd6, 0x24, 0x1c, 0x3d, 0xe1, 0x1c, 0xb5,
  0xcd, 0xed, 0xee, 0x27, 0xda, 0xdd, 0x26, 0xff, 0xde, 0xbf, 0xa6, 0xd9,
  0x38, 0xd5, 0x20, 0xb6, 0xf2, 0x0a, 0xcf, 0xff, 0x1a, 0xb4, 0x0f, 0x52,
  0xf7, 0xdb, 0xe7, 0xf2, 0xfd, 0xac, 0xd2, 0xdd, 0x44, 0xb8, 0xe0, 0x4b,
  0xd9, 0xac, 0xc0, 0xbe, 0xf3, 0x28, 0xe0, 0xfa, 0xd5, 0x33, 0x08, 0xc8,
  0x43, 0x50, 0xb5, 0xcb, 0x1c, 0x0b, 0x41, 0x39, 0x27, 0x5f, 0x3a, 0x37,
  0x45, 0x2c, 0xa3, 0x13, 0x41, 0x3d, 0xee, 0xbd, 0x1b, 0xb6, 0xae, 0x05,
  0x09, 0xa6, 0xf4, 0xb1, 0xe5, 0x4e, 0xef, 0xf4, 0xaf, 0xb5, 0x5a, 0xd3,
  0x2d, 0x0f, 0x46, 0xc8, 0x48, 0xd4, 0xba, 0x01, 0x29, 0x48, 0xd3, 0x57,
  0x0e, 0x1d, 0x4b, 0xf1, 0x10, 0xee, 0xec, 0x02, 0xd2, 0x3f, 0x9d, 0xcb,
  0xde, 0x0f, 0x41, 0x43, 0x3e, 0xfe, 0x06, 0x3c, 0xd6, 0x18, 0xde, 0xa5,
  0xd2, 0x4f, 0xe6, 0x2b, 0xa8, 0x3c, 0xe9, 0xb3, 0x29, 0x0b, 0xcd, 0x26,
  0x04, 0xe1, 0xac, 0x4c, 0xd7, 0xcd, 0x3e, 0xd5, 0xfc, 0x12, 0x2d, 0x4d,
  0x0d, 0x28, 0x22, 0x25, 0x13, 0xe0, 0xcb, 0x37, 0xb8, 0xd4, 0xfc, 0x58,
  0x14, 0x33, 0xd8, 0xef, 0xc5, 0x28, 0x1c, 0xc7, 0xaa, 0x01, 0xc2, 0xdd,
  0xbf, 0xe9, 0x36, 0xc5, 0xab, 0xbb, 0x1e, 0x3b, 0xbe, 0xbd, 0xba, 0x4b,
  0xa9, 0xaf, 0xb2, 0xed, 0xe9, 0x27, 0xdd, 0xd0, 0x44, 0xac, 0xa0, 0xbb,
  0xe5, 0xb0, 0xff, 0x11, 0x13, 0x1b, 0x48, 0xcb, 0x47, 0x33, 0xac, 0x2b,
  0xc4, 0x21, 0xf5, 0x57, 0x38, 0x3b, 0x1d, 0xff, 0xac, 0x33, 0xcc, 0xd4,
  0x34, 0xfc, 0xcc, 0xee, 0x28, 0x24, 0x11, 0xbc, 0xe6, 0x45, 0x2b, 0xf0,
  0xde, 0x20, 0xa2, 0x09, 0x0d, 0x38, 0xa8, 0xe6, 0x1b, 0x40, 0xe9, 0xed,
  0xf2, 0xb8, 0x53, 0xdf, 0xd1, 0x45, 0xdb, 0x5b, 0x1e, 0x18, 0xe4, 0x60,
  0x31, 0xb7, 0xa0, 0xa5, 0x07, 0x33, 0xe7, 0x52, 0xd2, 0x23, 0x4e, 0x24,
  0xf4, 0x15, 0xd1, 0x14, 0x34, 0xa9, 0xb4, 0xd6, 0xda, 0xb9, 0x27, 0x45,
  0xbc, 0x3d, 0xfb, 0x42, 0x1a, 0xed, 0x20, 0xf5, 0x32, 0x41, 0x38, 0xe6,
  0xff, 0x09, 0xc6, 0x9f, 0x3e, 0x9a, 0x03, 0xdd, 0x0a, 0x35, 0x08, 0x39,
  0xa6, 0xe9, 0x1d, 0x3a, 0xf0, 0x30, 0x0b, 0x37, 0x53, 0x4b, 0xa9, 0xe1,
  0x2d, 0x34, 0x2a, 0xe7, 0xf8, 0x32, 0x34, 0x31, 0x3c, 0xec, 0xe4, 0x14,
  0xd9, 0xb0, 0xc4, 0x47, 0xcb, 0xf1, 0xc0, 0x0c, 0xbe, 0x1f, 0xfe, 0x22,
  0xff, 0xdd, 0xcb, 0xa7, 0xc9, 0x49, 0x45, 0x21, 0xbd, 0x1a, 0xcb, 0x81,
  0x44, 0xe0, 0x37, 0xb4, 0xc4, 0xbe, 0x3a, 0xcb, 0xfc, 0xa9, 0x06, 0xe5,
  0xc3, 0xc3, 0x24, 0xf6, 0xbd, 0xfb, 0x49, 0x08, 0x20, 0xdc, 0xd1, 0xe0,
  0x3f, 0x2e, 0x99, 0xf9, 0xc3, 0xc5, 0x12, 0x01, 0xad, 0x25, 0xdc, 0x25,
  0x1e, 0xa8, 0xe4, 0xff, 0x25, 0x32, 0xd1, 0xb1, 0xb9, 0xa5, 0x33, 0x51,
  0xf0, 0x2d, 0x26, 0xc2, 0x12, 0xb7, 0xf1, 0x36, 0x34, 0x41, 0xb0, 0xd7,
  0x36, 0xb9, 0xde, 0xab, 0x11, 0xf2, 0x47, 0xe9, 0x45, 0xa7, 0x3b, 0xda,
  0x3f, 0xab, 0xc9, 0xb8, 0x4a, 0xda, 0x1a, 0xc3, 0xe9, 0x1e, 0x1b, 0xe7,
  0xb9, 0xfe, 0xaa, 0x99, 0x18, 0x00, 0xc5, 0x0f, 0xaa, 0xd1, 0x00, 0x21,
  0x47, 0xf9, 0xe8, 0x23, 0x49, 0x18, 0xe6, 0x3f, 0x21, 0xd9, 0x2e, 0x9d,
  0xa9, 0x3c, 0xaf, 0x94, 0xd2, 0x2e, 0xf8, 0xb8, 0xf2, 0xe9, 0x07, 0x3e,
  0xb5, 0x28, 0x04, 0xda, 0xae, 0x10, 0x11, 0x1f, 0x29, 0xc8, 0x3f, 0x1e,
  0xb1, 0xec, 0xdf, 0xcc, 0x04, 0x20, 0x1e, 0xd7, 0xe8, 0x23, 0x4b, 0xe2,
  0xd6, 0x0c, 0x39, 0xdf, 0xa3, 0x08, 0xeb, 0xfe, 0x4d, 0xd3, 0x41, 0x12,
  0x11, 0xb2, 0xd2, 0xe5, 0x42, 0x5a, 0x14, 0xd4, 0x2d, 0x1b, 0x30, 0x0b,
  0xae, 0xc0, 0xaf, 0xee, 0x29, 0xa4, 0x47, 0x2b, 0xc6, 0xfa, 0xb1, 0xd7,
  0x47, 0x46, 0xed, 0xa4, 0x52, 0x45, 0x33, 0x04, 0xdf, 0x1f, 0x0d, 0xb3,
  0x26, 0xe2, 0xb6, 0x33, 0x24, 0xe2, 0xb0, 0xfc, 0x25, 0x12, 0x1d, 0x04,
  0xf5, 0x54, 0xa2, 0x90, 0xce, 0xf7, 0xfe, 0xb0, 0xd4, 0xbe, 0xd1, 0xd9,
  0x17, 0x2d, 0xe6, 0xf4, 0xae, 0xf2, 0xeb, 0x16, 0x3c, 0x41, 0x3f, 0xf4,
  0xab, 0x28, 0xfa, 0x4a, 0xc6, 0x10, 0x2f, 0xb1, 0xc0, 0x29, 0x49, 0xa2,
  0xd1, 0xaf, 0xa5, 0x4e, 0xc5, 0x4f, 0x48, 0x33, 0xb1, 0xd0, 0x1e, 0x2c,
  0x29, 0xe7, 0xad, 0x24, 0x25, 0x24, 0xd4, 0xc7, 0xfc, 0xea, 0x3c, 0x0e,
  0xf5, 0xf3, 0xb1, 0xb1, 0x39, 0xb7, 0x4a, 0x05, 0x9e, 0xfa, 0xa2, 0xc8,
  0x9e, 0x25, 0xd4, 0xd8, 0xc8, 0xdc, 0xd1, 0xb7, 0xe3, 0x29, 0x28, 0x3b,
  0xa2, 0x48, 0x4e, 0x52, 0x1e, 0x3b, 0xe5, 0xba, 0xb7, 0x10, 0xb4, 0x1e,
  0xfa, 0xf5, 0x0c, 0x0b, 0xef, 0x13, 0x01, 0xf3, 0x39, 0x0d, 0xc2, 0xfb,
  0x53, 0x2e, 0x25, 0x4d, 0x20, 0x3f, 0x06, 0xef, 0x0a, 0xe1, 0x33, 0xbf,
  0xbd, 0x08, 0xc2, 0x4a, 0xd6, 0x02, 0xdf, 0x1a, 0x19, 0xdb, 0xbf, 0xab,
  0xbc, 0x2e, 0x35, 0x31, 0x3b, 0xd0, 0xa0, 0x28, 0x53, 0x47, 0xca, 0x43,
  0x0d, 0x0b, 0x2d, 0x10, 0x35, 0xbc, 0xf4, 0xd9, 0xe7, 0x12, 0x05, 0x02,
  0xda, 0xd5, 0xf2, 0x44, 0x37, 0x44, 0x29, 0xd7, 0x2b, 0x1c, 0x50, 0x1b,
  0xc6, 0x02, 0xcd, 0xbe, 0x36, 0x24, 0x03, 0x1a, 0xfb, 0x0a, 0x51, 0xaa,
  0x13, 0xa6, 0x38, 0xbc, 0xed, 0xae, 0xad, 0x40, 0x36, 0x2e, 0xf4, 0xa6,
  0xba, 0x03, 0xb1, 0xd9, 0xb4, 0xdb, 0x0b, 0xc9, 0x0c, 0xcd, 0xde, 0xa0,
  0xa0, 0x19, 0x12, 0xdc, 0xb8, 0x41, 0xb9, 0x3e, 0xe6, 0x00, 0xf7, 0xcc,
  0x08, 0xa0, 0x14, 0xf4, 0x18, 0x52, 0x1b, 0x1a, 0xf1, 0x07, 0x32, 0x39,
  0x1c, 0xf3, 0x19, 0xb4, 0x47, 0x0a, 0xc1, 0xa1, 0x2f, 0xcb, 0x1e, 0xc6,
  0x5e, 0xb2, 0xa8, 0xc4, 0x1f, 0xda, 0x50, 0x51, 0xef, 0xb6, 0x19, 0x38,
  0x25, 0xfd, 0xdb, 0xe0, 0x59, 0x0d, 0x36, 0xfa, 0xfd, 0xe2, 0xc5, 0xa9,
  0x23, 0xfd, 0xc3, 0x41, 0x03, 0xd3, 0x41, 0x28, 0xe2, 0xf3, 0xbb, 0x91,
  0xe9, 0x3f, 0xfd, 0x40, 0xcd, 0x58, 0x3e, 0x38, 0xef, 0x18, 0xcf, 0x20,
  0xee, 0xe1, 0xf8, 0xc4, 0xce, 0x53, 0xa4, 0x53, 0x29, 0xab, 0x14, 0xd1,
  0x46, 0x58, 0xd3, 0x02, 0x10, 0x26, 0xea, 0x1b, 0xbf, 0xf6, 0xbf, 0x39,
  0x17, 0xc1, 0xb1, 0x3e, 0xc1, 0x45, 0xfe, 0x40, 0x06, 0x3c, 0xde, 0xd8,
  0x33, 0x15, 0xa1, 0x33, 0xd9, 0xec, 0x04, 0x51, 0x32, 0xb5, 0x56, 0x30,
  0x58, 0xe9, 0xd8, 0xb0, 0xdc, 0x5b, 0x2e, 0xcb, 0x1d, 0x64, 0xe9, 0xbf,
  0x33, 0xd6, 0xa9, 0xde, 0xf2, 0x53, 0xb1, 0xb3, 0xd7, 0xe6, 0x1b, 0xd7,
  0x14, 0xf0, 0x4b, 0x07, 0xe1, 0x25, 0x11, 0x02, 0x31, 0x0d, 0x1b, 0x94,
  0xc8, 0xd0, 0x4f, 0xef, 0x44, 0x64, 0x46, 0x3b, 0x06, 0x65, 0xee, 0x60,
  0xfc, 0x35, 0x34, 0xda, 0xea, 0xdb, 0x18, 0x12, 0x1a, 0x29, 0xc8, 0xdc,
  0x52, 0x2e, 0x10, 0x22, 0x17, 0x2d, 0x0e, 0xa7, 0xd1, 0xd4, 0x29, 0xeb,
  0x1e, 0xb8, 0xcb, 0xd9, 0xfc, 0x2f, 0xca, 0x19, 0x55, 0xc6, 0xc8, 0x45,
  0xa2, 0xe2, 0xd3, 0x45, 0x44, 0x2d, 0x3e, 0xf3, 0xe8, 0xcd, 0xbf, 0xa9,
  0x1e, 0xc6, 0x4a, 0x4e, 0xc8, 0x3e, 0x1f, 0x00, 0x02, 0x9e, 0xd6, 0xa8,
  0x4b, 0x06, 0x36, 0x42, 0x29, 0x27, 0xc4, 0x19, 0x0a, 0x1e, 0xac, 0xaf,
  0xb7, 0x9e, 0xd2, 0xb2, 0xb5, 0xb6, 0xca, 0x37, 0x4b, 0x18, 0x9d, 0xa4,
  0xc7, 0xdd, 0x17, 0x52, 0xa1, 0xa4, 0xea, 0x9a, 0x0f, 0x20, 0x46, 0x0e,
  0x39, 0xc0, 0x2b, 0x97, 0x00, 0x20, 0x30, 0x4f, 0x42, 0xe6, 0xae, 0x38,
  0x48, 0xf9, 0x9b, 0xa7, 0xc8, 0xef, 0x43, 0xa2, 0x25, 0x52, 0x4d, 0x41,
  0xa3, 0xee, 0xc7, 0x33, 0xb2, 0xf1, 0xd2, 0xe7, 0x42, 0x25, 0xe7, 0x05,
  0x40, 0xae, 0x3c, 0xc6, 0x21, 0x60, 0xc2, 0xef, 0xcf, 0x2f, 0x29, 0xc1,
  0xad, 0xa0, 0xc7, 0xdd, 0x26, 0x40, 0x26, 0xff, 0x31, 0x41, 0x1d, 0x47,
  0x32, 0x24, 0xaf, 0xe1, 0x10, 0xdb, 0x50, 0x49, 0x51, 0xaf, 0xe1, 0x17,
  0xc3, 0xda, 0xe6, 0xd5, 0x43, 0xb5, 0x3a, 0x12, 0x51, 0x2b, 0x32, 0x15,
  0xbc, 0x20, 0x42, 0xa4, 0xb4, 0xaa, 0xbf, 0xa5, 0x0a, 0xf9, 0x07, 0xde,
  0x5a, 0xb0, 0x11, 0x0d, 0xaf, 0x00, 0xd6, 0xfb, 0xd5, 0xe3, 0xcc, 0xfe,
  0x52, 0xd1, 0x26, 0x32, 0xfb, 0x9f, 0xe2, 0xfc, 0x3a, 0xcc, 0xa3, 0xea,
  0xb0, 0x42, 0xe2, 0x14, 0x24, 0x02, 0xcd, 0xab, 0x40, 0xe7, 0x21, 0xdc,
  0x46, 0x4d, 0xaa, 0x36, 0xcd, 0xe3, 0xaa, 0x1e, 0xb1, 0x65, 0x08, 0xc1,
  0x3c, 0xc8, 0x42, 0x53, 0x20, 0x18, 0xe4, 0xb1, 0xbd, 0x0c, 0xa8, 0x33,
  0x15, 0x10, 0x55, 0x42, 0xcb, 0x49, 0x03, 0x1a, 0xe0, 0x35, 0x4e, 0x2a,
  0x1b, 0x29, 0xf3, 0xed, 0xf6, 0xd6, 0x51, 0x1b, 0xe6, 0xf7, 0x30, 0xe5,
  0x46, 0xc3, 0xb9, 0xb8, 0xb1, 0x49, 0xc1, 0x10, 0x46, 0xf1, 0xb3, 0x3a,
  0xc3, 0x2b, 0xc2, 0x2f, 0x2b, 0xde, 0xa7, 0x3b, 0xd3, 0x58, 0x3e, 0x33,
  0x1c, 0x57, 0xf5, 0x37, 0x11, 0xa7, 0xb9, 0xe0, 0xd8, 0xfc, 0xfc, 0xe5,
  0x56, 0xb6, 0x54, 0xbf, 0xfd, 0x42, 0xe2, 0xfa, 0xed, 0x2d, 0xc8, 0xc2,
  0x39, 0x1f, 0xdb, 0x0d, 0xf7, 0xdd, 0xd0, 0x1e, 0x4e, 0x0c, 0xb3, 0xfe,
  0xef, 0x56, 0xb6, 0xce, 0xf6, 0xff, 0x06, 0x32, 0xa3, 0x2c, 0xb8, 0xce,
  0xdb, 0x5f, 0xf8, 0xba, 0xbd, 0xe8, 0x0d, 0x57, 0x03, 0x18, 0xeb, 0x47,
  0xe1, 0xa4, 0x1e, 0xd5, 0xf9, 0x5e, 0xc2, 0xeb, 0x16, 0x4d, 0x21, 0x00,
  0xa4, 0xfc, 0xc1, 0xfd, 0xf4, 0xd3, 0xdc, 0x19, 0xa9, 0xd3, 0xf2, 0xc2,
  0x0c, 0xcd, 0xfc, 0x41, 0x48, 0x4c, 0xe1, 0x2e, 0x05, 0x23, 0xec, 0x3b,
  0xc5, 0xcb, 0x53, 0xc5, 0x40, 0x29, 0xfd, 0xba, 0xca, 0xc8, 0xd8, 0xba,
  0x26, 0x13, 0xd3, 0xae, 0xe8, 0xe6, 0xff, 0x4b, 0xfe, 0x23, 0x4d, 0xb4,
  0x2a, 0xee, 0x51, 0xec, 0xf9, 0xef, 0xef, 0xff, 0x48, 0xb8, 0xd2, 0xb3,
  0x17, 0x29, 0x49, 0xae, 0xf0, 0xf3, 0xae, 0x56, 0xa9, 0x31, 0xf3, 0x0d,
  0xc7, 0xc3, 0xf4, 0x49, 0xc0, 0x1e, 0x11, 0x37, 0x13, 0x38, 0x42, 0xb5,
  0x35, 0xa1, 0x08, 0xa6, 0xb5, 0xfa, 0x16, 0xd8, 0x31, 0xc8, 0x03, 0xe2,
  0x55, 0x1f, 0xb8, 0x27, 0xbb, 0xc8, 0x21, 0x2c, 0xbf, 0xb2, 0x08, 0xa6,
  0x44, 0x1e, 0x3a, 0xa9, 0x53, 0x05, 0xac, 0x36, 0xf1, 0xee, 0x14, 0xe1,
  0x16, 0xf2, 0x1d, 0xd3, 0x59, 0xae, 0xb0, 0xd6, 0x51, 0xbf, 0x35, 0xda,
  0x40, 0xd8, 0xbe, 0xb1, 0xb0, 0x41, 0x54, 0x07, 0x4a, 0xa2, 0xa7, 0xf3,
  0xad, 0xf4, 0x32, 0x42, 0x4c, 0x0e, 0xd5, 0xdd, 0xf5, 0x21, 0x18, 0x23,
  0xc0, 0x54, 0xdc, 0xd5, 0x41, 0x25, 0x56, 0x3b, 0x4f, 0x9d, 0x22, 0x51,
  0x19, 0xec, 0xfb, 0xa8, 0x19, 0x0c, 0x10, 0xd5, 0x56, 0xf8, 0x59, 0xff,
  0xac, 0xd2, 0x13, 0xd1, 0x13, 0xcb, 0x54, 0x29, 0xb8, 0xcc, 0xfb, 0x10,
  0x4d, 0xd8, 0x0a, 0xe8, 0xb7, 0xab, 0xb4, 0x3f, 0xe0, 0x22, 0x34, 0x23,
  0xa5, 0x0e, 0xc4, 0x02, 0x0f, 0x59, 0xfc, 0xdf, 0x4f, 0xea, 0xdb, 0x3c,
  0xea, 0xe1, 0xe9, 0x2b, 0x19, 0xb7, 0x04, 0x18, 0xf3, 0x33, 0x33, 0x00,
  0xa7, 0x24, 0xee, 0xeb, 0x06, 0x0f, 0xe3, 0xad, 0x14, 0x39, 0x30, 0x16,
  0x4f, 0x4a, 0x1b, 0x46, 0xe3, 0x1b, 0xcc, 0x0f, 0x07, 0x4d, 0xaf, 0xcb,
  0x2b, 0xaa, 0x04, 0xe9, 0x04, 0xcb, 0xfa, 0xa5, 0x43, 0x0c, 0x9b, 0xa6,
  0x0c, 0xd4, 0x37, 0xc2, 0xbd, 0x53, 0xfb, 0x28, 0x46, 0x30, 0x39, 0x51,
  0x42, 0x09, 0xfb, 0x13, 0xcb, 0xf2, 0xf1, 0xa7, 0x4a, 0xd4, 0x4b, 0x02,
  0x0c, 0xa0, 0x13, 0xe5, 0x2a, 0x9c, 0xd7, 0x38, 0x0b, 0xb5, 0xcc, 0x27,
  0x4e, 0x35, 0xf5, 0x14, 0x22, 0x43, 0x0e, 0x5a, 0xb3, 0x04, 0xe1, 0x19,
  0x50, 0x35, 0x0f, 0x5a, 0xce, 0xc0, 0x27, 0x16, 0xc3, 0x19, 0x55, 0x1f,
  0xe2, 0xed, 0xda, 0xc3, 0xf4, 0x3f, 0x02, 0xe6, 0x28, 0xa3, 0x39, 0x0d,
  0xfd, 0xec, 0x0b, 0xa6, 0x08, 0x41, 0xa3, 0x34, 0x29, 0x12, 0x45, 0xc1,
  0x2d, 0xba, 0x1b, 0x0b, 0x1b, 0x51, 0xf6, 0x21, 0xe0, 0xe7, 0x56, 0xc2,
  0xcb, 0xd9, 0xd3, 0xe3, 0xea, 0x44, 0xab, 0x17, 0x3d, 0xe0, 0xd9, 0x30,
  0xaa, 0xbe, 0xb0, 0x56, 0x1c, 0x60, 0xda, 0x5a, 0xbc, 0xdc, 0x0d, 0x3e,
  0xaa, 0x23, 0xca, 0xed, 0x0f, 0xfb, 0xce, 0x34, 0x35, 0x0b, 0xcd, 0xd8,
  0xe6, 0x2d, 0xe6, 0xdd, 0x58, 0x43, 0x14, 0x41, 0xe8, 0xf9, 0xe1, 0xe2,
  0xd5, 0xf8, 0xf4, 0xef, 0x4f, 0x53, 0xd3, 0x69, 0xe4, 0xb4, 0xd9, 0xd0,
  0x0e, 0xb5, 0x55, 0xd2, 0xc8, 0x5f, 0x3f, 0xec, 0xde, 0x0d, 0xce, 0x0a,
  0x3d, 0xe0, 0xe9, 0x29, 0x4a, 0x24, 0x4a, 0x3c, 0x08, 0xba, 0xe7, 0x0c,
  0xe5, 0x3b, 0xf4, 0xe2, 0x25, 0xf4, 0xca, 0xcc, 0xa6, 0xbb, 0x21, 0xe3,
  0xb0, 0x1f, 0xa9, 0xf9, 0x46, 0x10, 0xc6, 0xc9, 0x12, 0xc1, 0x2a, 0x3a,
  0xe9, 0x51, 0xcc, 0xeb, 0xd0, 0x3b, 0x39, 0x60, 0xba, 0xe0, 0xc3, 0x45,
  0xc9, 0xb4, 0xd8, 0xac, 0x2c, 0x43, 0xff, 0xd0, 0xa5, 0xfd, 0xf8, 0xea,
  0x32, 0x2f, 0x12, 0xe8, 0x37, 0x09, 0x11, 0x44, 0x2d, 0xec, 0x28, 0x05,
  0xc7, 0x00, 0x01, 0xcf, 0x4b, 0xc4, 0xbf, 0x22, 0xb7, 0x4b, 0xe7, 0x44,
  0xd4, 0x07, 0x1b, 0xd5, 0xf0, 0x0a, 0x18, 0x0b, 0xbb, 0xc5, 0x38, 0x45,
  0xcf, 0xcc, 0xdf, 0xaf, 0x50, 0x50, 0x29, 0x3d, 0x57, 0x33, 0xef, 0xaf,
  0xe2, 0xf9, 0xc9, 0x98, 0x3e, 0xeb, 0xbd, 0x57, 0xde, 0x1e, 0xcb, 0x2b,
  0xda, 0x19, 0xf6, 0x29, 0x4d, 0x32, 0x20, 0x1d, 0x49, 0x38, 0xa5, 0x57,
  0x5b, 0x52, 0xe2, 0xcc, 0x26, 0x0c, 0xe0, 0x1e, 0xe9, 0x24, 0xb8, 0xb5,
  0xdf, 0x1d, 0x5a, 0x40, 0x1b, 0xb8, 0xbd, 0x4e, 0xdd, 0xbd, 0xf3, 0x17,
  0x0a, 0x42, 0xdc, 0x04, 0x25, 0xea, 0x1d, 0xeb, 0xae, 0x29, 0x5d, 0xb9,
  0x4c, 0xb7, 0xc6, 0xab, 0xca, 0x4d, 0x5f, 0x09, 0xbd, 0x3d, 0xa3, 0x50,
  0xad, 0xc9, 0xe5, 0xae, 0xf1, 0x36, 0x39, 0x08, 0xe7, 0xb2, 0xe7, 0x0b,
  0x9e, 0xc9, 0x40, 0x11, 0x41, 0x51, 0xee, 0xe1, 0x4a, 0xde, 0xc7, 0xca,
  0x1f, 0xf3, 0x24, 0xe3, 0xe3, 0xf1, 0x39, 0x08, 0xff, 0x19, 0xc1, 0x18,
  0x04, 0xfd, 0x26, 0x17, 0xb1, 0x0f, 0x53, 0x50, 0xf5, 0xee, 0xad, 0xc1,
  0x47, 0xb6, 0xe3, 0xcc, 0x38, 0x1b, 0xbc, 0xd3, 0x15, 0x31, 0xce, 0xdd,
  0xda, 0xdc, 0x48, 0xc0, 0xdc, 0xd4, 0xcd, 0xe1, 0x1b, 0xa7, 0xbf, 0xb4,
  0x3c, 0xe4, 0x03, 0x25, 0xbc, 0x45, 0x08, 0x25, 0xbb, 0x68, 0xd1, 0x06,
  0x28, 0x9b, 0xfc, 0xff, 0x05, 0x59, 0xe6, 0xc8, 0xde, 0x39, 0x15, 0x59,
  0xc0, 0xb3, 0x3c, 0xa5, 0x01, 0x4d, 0x10, 0x37, 0xed, 0xa3, 0xca, 0x8b,
  0xc1, 0xe0, 0x9c, 0xe0, 0xb6, 0x08, 0x6f, 0x02, 0xef, 0x45, 0x34, 0xef,
  0x2b, 0xcb, 0xf9, 0x17, 0xe3, 0xe3, 0x02, 0xe3, 0xc0, 0xb3, 0xdc, 0x04,
  0xbf, 0xd2, 0xc0, 0xc4, 0xb7, 0xb2, 0xe3, 0xbc, 0xf8, 0xf1, 0xf9, 0xb2,
  0xea, 0x22, 0x1f, 0xf6, 0x5e, 0xff, 0xb4, 0x23, 0x02, 0x59, 0x4e, 0xbc,
  0x29, 0x0d, 0x29, 0xd6, 0x0f, 0xf9, 0xf7, 0x3f, 0x52, 0x34, 0xd6, 0x13,
  0x03, 0x30, 0xe7, 0xc4, 0xca, 0xbf, 0xfc, 0x12, 0xd5, 0x26, 0xe8, 0xd3,
  0x35, 0xe3, 0xf0, 0xfd, 0x03, 0xae, 0xae, 0xce, 0x52, 0xd7, 0x43, 0xbd,
  0xe7, 0xf5, 0x17, 0x4e, 0xed, 0xd4, 0xc0, 0x23, 0xf6, 0xa7, 0xff, 0xe8,
  0x48, 0x21, 0x1c, 0x30, 0xeb, 0xe4, 0x49, 0xb2, 0x59, 0xb4, 0xe9, 0x24,
  0xb6, 0x56, 0xa0, 0xdd, 0xbb, 0xed, 0xfe, 0x48, 0x07, 0x1c, 0x00, 0xf8,
  0xff, 0xcd, 0xc3, 0x59, 0xef, 0x50, 0xe0, 0x13, 0x0f, 0xb3, 0xb2, 0xc1,
  0x3f, 0xd2, 0x35, 0xa9, 0xd4, 0xf3, 0x38, 0x41, 0xbc, 0xc5, 0x0f, 0x3f,
  0x0a, 0xbc, 0xf2, 0x56, 0xf8, 0xee, 0x3b, 0x25, 0x36, 0xb5, 0xf1, 0xe6,
  0x02, 0x01, 0xda, 0x0f, 0xfe, 0x06, 0xd4, 0x16, 0x2e, 0x10, 0xac, 0xb2,
  0xb7, 0xeb, 0xc5, 0xab, 0xfc, 0x04, 0x1e, 0xf3, 0x22, 0xd3, 0xaf, 0x3d,
  0x27, 0xe5, 0x3f, 0x48, 0x4b, 0xca, 0x37, 0x23, 0x29, 0x12, 0x14, 0x4f,
  0x26, 0x4c, 0x09, 0x51, 0x26, 0x40, 0x37, 0x31, 0x52, 0x3d, 0xef, 0xc3,
  0x10, 0xa8, 0xbe, 0xf4, 0x27, 0xac, 0x0e, 0x22, 0xb4, 0xb2, 0x4d, 0x46,
  0xc4, 0x53, 0x4f, 0xde, 0xf0, 0x35, 0x2c, 0xf3, 0x2d, 0x53, 0x1b, 0xf9,
  0xc3, 0x36, 0x40, 0xc1, 0x30, 0xdc, 0x41, 0x24, 0x2e, 0xe1, 0xcf, 0x20,
  0x1d, 0xca, 0x05, 0x05, 0xcc, 0xe2, 0xe9, 0x17, 0xdc, 0x54, 0xaa, 0x09,
  0x32, 0x15, 0x46, 0x14, 0x00, 0x00, 0x00, 0x00, 0x56, 0xfe, 0xff, 0xff,
  0x04, 0x00, 0x00, 0x00, 0x20, 0x00, 0x00, 0x00, 0xab, 0x86, 0x3d, 0xbd,
  0xaf, 0xb5, 0x75, 0xbc, 0x13, 0xa6, 0xeb, 0xbc, 0xe6, 0x51, 0x77, 0x3d,
  0x7d, 0x1f, 0x52, 0x3d, 0x25, 0x12, 0x8e, 0xbd, 0xbf, 0x6a, 0xc9, 0x3b,
  0x67, 0x00, 0x83, 0xbd, 0x00, 0x00, 0x00, 0x00, 0x86, 0xfe, 0xff, 0xff,
  0x04, 0x00, 0x00, 0x00, 0x40, 0x00, 0x00, 0x00, 0xcf, 0xc2, 0x58, 0xbc,
  0xc5, 0x4c, 0x08, 0xbc, 0x4d, 0xa8, 0x28, 0xbd, 0x30, 0xf1, 0xad, 0x3b,
  0x30, 0x84, 0x8a, 0xbc, 0x5f, 0x61, 0xc9, 0x3b, 0xb8, 0x40, 0x1e, 0xbc,
  0x9f, 0x46, 0x77, 0xbd, 0xf8, 0xfb, 0xa9, 0xbc, 0xf5, 0x04, 0xa2, 0xbc,
  0x59, 0x67, 0x39, 0xbc, 0x41, 0x87, 0x32, 0xbb, 0x84, 0x15, 0x8a, 0xbb,
  0x74, 0x58, 0xd1, 0xbc, 0x58, 0xa5, 0x37, 0xbd, 0x59, 0x86, 0x5a, 0x3d,
  0x00, 0x00, 0x00, 0x00, 0xd6, 0xfe, 0xff, 0xff, 0x04, 0x00, 0x00, 0x00,
  0x40, 0x00, 0x00, 0x00, 0x2a, 0x88, 0xba, 0xbc, 0xc0, 0x53, 0x6b, 0xbc,
  0xa7, 0xbe, 0x86, 0xbc, 0x5a, 0xde, 0x10, 0xbd, 0x18, 0xcc, 0xb9, 0xbc,
  0xe0, 0x52, 0x14, 0x3c, 0x0b, 0x7c, 0x26, 0x3c, 0xec, 0xcd, 0x39, 0xbd,
  0xe7, 0x3e, 0x54, 0xbd, 0x87, 0x5f, 0xff, 0xbc, 0x99, 0x98, 0xc9, 0xbc,
  0x96, 0x92, 0x5c, 0xba, 0x25, 0xa5, 0xc7, 0xbc, 0xeb, 0xe6, 0x45, 0x3c,
  0xfb, 0x52, 0xa8, 0xbc, 0x8a, 0xaf, 0x3f, 0x3c, 0x00, 0x00, 0x00, 0x00,
  0x26, 0xff, 0xff, 0xff, 0x04, 0x00, 0x00, 0x00, 0x10, 0x00, 0x00, 0x00,
  0x73, 0x99, 0xce, 0xbc, 0x1c, 0xc2, 0x42, 0x3b, 0x50, 0x52, 0x22, 0xbd,
  0x90, 0x9b, 0x2c, 0x3d, 0x00, 0x00, 0x00, 0x00, 0x46, 0xff, 0xff, 0xff,
  0x04, 0x00, 0x00, 0x00, 0x08, 0x00, 0x00, 0x00, 0xff, 0xff, 0xff, 0xff,
  0xe0, 0x00, 0x00, 0x00, 0x00, 0x00, 0x00, 0x00, 0xb0, 0xf5, 0xff, 0xff,
  0x00, 0x00, 0x00, 0x00, 0x00, 0x00, 0x00, 0x00, 0x00, 0x00, 0x00, 0x00,
  0xc0, 0xf5, 0xff, 0xff, 0x0f, 0x00, 0x00, 0x00, 0x4d, 0x4c, 0x49, 0x52,
  0x20, 0x43, 0x6f, 0x6e, 0x76, 0x65, 0x72, 0x74, 0x65, 0x64, 0x2e, 0x00,
  0x01, 0x00, 0x00, 0x00, 0x14, 0x00, 0x00, 0x00, 0x00, 0x00, 0x0e, 0x00,
  0x18, 0x00, 0x04, 0x00, 0x08, 0x00, 0x0c, 0x00, 0x10, 0x00, 0x14, 0x00,
  0x0e, 0x00, 0x00, 0x00, 0x84, 0x02, 0x00, 0x00, 0x78, 0x02, 0x00, 0x00,
  0x6c, 0x02, 0x00, 0x00, 0x14, 0x00, 0x00, 0x00, 0x04, 0x00, 0x00, 0x00,
  0x04, 0x00, 0x00, 0x00, 0x6d, 0x61, 0x69, 0x6e, 0x00, 0x00, 0x00, 0x00,
  0x08, 0x00, 0x00, 0x00, 0x08, 0x02, 0x00, 0x00, 0xa4, 0x01, 0x00, 0x00,
  0x54, 0x01, 0x00, 0x00, 0x04, 0x01, 0x00, 0x00, 0xdc, 0x00, 0x00, 0x00,
  0x88, 0x00, 0x00, 0x00, 0x40, 0x00, 0x00, 0x00, 0x04, 0x00, 0x00, 0x00,
  0x86, 0xfe, 0xff, 0xff, 0x00, 0x00, 0x00, 0x09, 0x04, 0x00, 0x00, 0x00,
  0x24, 0x00, 0x00, 0x00, 0x18, 0x00, 0x00, 0x00, 0x0c, 0x00, 0x00, 0x00,
  0x00, 0x00, 0x06, 0x00, 0x08, 0x00, 0x04, 0x00, 0x06, 0x00, 0x00, 0x00,
  0x00, 0x00, 0x80, 0x3f, 0x01, 0x00, 0x00, 0x00, 0x11, 0x00, 0x00, 0x00,
  0x01, 0x00, 0x00, 0x00, 0x10, 0x00, 0x00, 0x00, 0xca, 0xff, 0xff, 0xff,
  0x00, 0x00, 0x00, 0x08, 0x03, 0x00, 0x00, 0x00, 0x18, 0x00, 0x00, 0x00,
  0x0c, 0x00, 0x00, 0x00, 0x04, 0x00, 0x00, 0x00, 0x88, 0xf6, 0xff, 0xff,
  0x01, 0x00, 0x00, 0x00, 0x10, 0x00, 0x00, 0x00, 0x03, 0x00, 0x00, 0x00,
  0x0f, 0x00, 0x00, 0x00, 0x07, 0x00, 0x00, 0x00, 0x02, 0x00, 0x00, 0x00,
  0x00, 0x00, 0x0e, 0x00, 0x18, 0x00, 0x08, 0x00, 0x0c, 0x00, 0x10, 0x00,
  0x07, 0x00, 0x14, 0x00, 0x0e, 0x00, 0x00, 0x00, 0x00, 0x00, 0x00, 0x08,
  0x03, 0x00, 0x00, 0x00, 0x28, 0x00, 0x00, 0x00, 0x1c, 0x00, 0x00, 0x00,
  0x10, 0x00, 0x00, 0x00, 0x0c, 0x00, 0x08, 0x00, 0x06, 0x00, 0x00, 0x00,
  0x00, 0x00, 0x07, 0x00, 0x0c, 0x00, 0x00, 0x00, 0x00, 0x00, 0x01, 0x01,
  0x01, 0x00, 0x00, 0x00, 0x0f, 0x00, 0x00, 0x00, 0x03, 0x00, 0x00, 0x00,
  0x0e, 0x00, 0x00, 0x00, 0x06, 0x00, 0x00, 0x00, 0x03, 0x00, 0x00, 0x00,
  0x00, 0x00, 0x0a, 0x00, 0x10, 0x00, 0x04, 0x00, 0x08, 0x00, 0x0c, 0x00,
  0x0a, 0x00, 0x00, 0x00, 0x02, 0x00, 0x00, 0x00, 0x10, 0x00, 0x00, 0x00,
  0x04, 0x00, 0x00, 0x00, 0x01, 0x00, 0x00, 0x00, 0x0e, 0x00, 0x00, 0x00,
  0x02, 0x00, 0x00, 0x00, 0x0d, 0x00, 0x00, 0x00, 0x01, 0x00, 0x00, 0x00,
  0x76, 0xff, 0xff, 0xff, 0x00, 0x00, 0x00, 0x05, 0x01, 0x00, 0x00, 0x00,
  0x38, 0x00, 0x00, 0x00, 0x2c, 0x00, 0x00, 0x00, 0x14, 0x00, 0x00, 0x00,
  0x00, 0x00, 0x0e, 0x00, 0x14, 0x00, 0x00, 0x00, 0x04, 0x00, 0x08, 0x00,
  0x0c, 0x00, 0x10, 0x00, 0x0e, 0x00, 0x00, 0x00, 0x01, 0x00, 0x00, 0x00,
  0x03, 0x00, 0x00, 0x00, 0x01, 0x00, 0x00, 0x00, 0x03, 0x00, 0x00, 0x00,
  0x01, 0x00, 0x00, 0x00, 0x0d, 0x00, 0x00, 0x00, 0x01, 0x00, 0x00, 0x00,
  0x0c, 0x00, 0x00, 0x00, 0x62, 0xff, 0xff, 0xff, 0x00, 0x00, 0x00, 0x01,
  0x24, 0x00, 0x00, 0x00, 0x18, 0x00, 0x00, 0x00, 0x04, 0x00, 0x00, 0x00,
  0x54, 0xff, 0xff, 0xff, 0x00, 0x00, 0x00, 0x01, 0x01, 0x00, 0x00, 0x00,
  0x01, 0x00, 0x00, 0x00, 0x01, 0x00, 0x00, 0x00, 0x0c, 0x00, 0x00, 0x00,
  0x03, 0x00, 0x00, 0x00, 0x0b, 0x00, 0x00, 0x00, 0x09, 0x00, 0x00, 0x00,
  0x04, 0x00, 0x00, 0x00, 0x00, 0x00, 0x0e, 0x00, 0x1a, 0x00, 0x08, 0x00,
  0x0c, 0x00, 0x10, 0x00, 0x07, 0x00, 0x14, 0x00, 0x0e, 0x00, 0x00, 0x00,
  0x00, 0x00, 0x00, 0x05, 0x01, 0x00, 0x00, 0x00, 0x3c, 0x00, 0x00, 0x00,
  0x30, 0x00, 0x00, 0x00, 0x14, 0x00, 0x00, 0x00, 0x00, 0x00, 0x0e, 0x00,
  0x18, 0x00, 0x07, 0x00, 0x08, 0x00, 0x0c, 0x00, 0x10, 0x00, 0x14, 0x00,
  0x0e, 0x00, 0x00, 0x00, 0x00, 0x00, 0x00, 0x01, 0x03, 0x00, 0x00, 0x00,
  0x03, 0x00, 0x00, 0x00, 0x03, 0x00, 0x00, 0x00, 0x03, 0x00, 0x00, 0x00,
  0x01, 0x00, 0x00, 0x00, 0x0b, 0x00, 0x00, 0x00, 0x01, 0x00, 0x00, 0x00,
  0x0a, 0x00, 0x00, 0x00, 0x00, 0x00, 0x0e, 0x00, 0x14, 0x00, 0x00, 0x00,
  0x08, 0x00, 0x0c, 0x00, 0x07, 0x00, 0x10, 0x00, 0x0e, 0x00, 0x00, 0x00,
  0x00, 0x00, 0x00, 0x01, 0x30, 0x00, 0x00, 0x00, 0x24, 0x00, 0x00, 0x00,
  0x10, 0x00, 0x00, 0x00, 0x0c, 0x00, 0x10, 0x00, 0x00, 0x00, 0x08, 0x00,
  0x0c, 0x00, 0x07, 0x00, 0x0c, 0x00, 0x00, 0x00, 0x00, 0x00, 0x00, 0x01,
  0x01, 0x00, 0x00, 0x00, 0x01, 0x00, 0x00, 0x00, 0x01, 0x00, 0x00, 0x00,
  0x0a, 0x00, 0x00, 0x00, 0x03, 0x00, 0x00, 0x00, 0x00, 0x00, 0x00, 0x00,
  0x08, 0x00, 0x00, 0x00, 0x05, 0x00, 0x00, 0x00, 0x01, 0x00, 0x00, 0x00,
  0x11, 0x00, 0x00, 0x00, 0x01, 0x00, 0x00, 0x00, 0x00, 0x00, 0x00, 0x00,
  0x12, 0x00, 0x00, 0x00, 0x58, 0x07, 0x00, 0x00, 0xfc, 0x06, 0x00, 0x00,
  0x90, 0x06, 0x00, 0x00, 0x24, 0x06, 0x00, 0x00, 0xc8, 0x05, 0x00, 0x00,
  0x6c, 0x05, 0x00, 0x00, 0xfc, 0x04, 0x00, 0x00, 0xb4, 0x04, 0x00, 0x00,
  0x64, 0x04, 0x00, 0x00, 0x14, 0x04, 0x00, 0x00, 0x4c, 0x03, 0x00, 0x00,
  0xdc, 0x02, 0x00, 0x00, 0x0c, 0x02, 0x00, 0x00, 0x9c, 0x01, 0x00, 0x00,
  0x44, 0x01, 0x00, 0x00, 0xc0, 0x00, 0x00, 0x00, 0x4c, 0x00, 0x00, 0x00,
  0x04, 0x00, 0x00, 0x00, 0x04, 0xf9, 0xff, 0xff, 0x34, 0x00, 0x00, 0x00,
  0x12, 0x00, 0x00, 0x00, 0x1c, 0x00, 0x00, 0x00, 0x14, 0x00, 0x00, 0x00,
  0x04, 0x00, 0x00, 0x00, 0x02, 0x00, 0x00, 0x00, 0xff, 0xff, 0xff, 0xff,
  0x04, 0x00, 0x00, 0x00, 0xe8, 0xf8, 0xff, 0xff, 0x08, 0x00, 0x00, 0x00,
  0x49, 0x64, 0x65, 0x6e, 0x74, 0x69, 0x74, 0x79, 0x00, 0x00, 0x00, 0x00,
  0x02, 0x00, 0x00, 0x00, 0x01, 0x00, 0x00, 0x00, 0x04, 0x00, 0x00, 0x00,
  0x48, 0xf9, 0xff, 0xff, 0x60, 0x00, 0x00, 0x00, 0x11, 0x00, 0x00, 0x00,
  0x1c, 0x00, 0x00, 0x00, 0x14, 0x00, 0x00, 0x00, 0x04, 0x00, 0x00, 0x00,
  0x02, 0x00, 0x00, 0x00, 0xff, 0xff, 0xff, 0xff, 0x04, 0x00, 0x00, 0x00,
  0x2c, 0xf9, 0xff, 0xff, 0x34, 0x00, 0x00, 0x00, 0x73, 0x65, 0x71, 0x75,
  0x65, 0x6e, 0x74, 0x69, 0x61, 0x6c, 0x2f, 0x64, 0x65, 0x6e, 0x73, 0x65,
  0x5f, 0x31, 0x2f, 0x4d, 0x61, 0x74, 0x4d, 0x75, 0x6c, 0x3b, 0x73, 0x65,
  0x71, 0x75, 0x65, 0x6e, 0x74, 0x69, 0x61, 0x6c, 0x2f, 0x64, 0x65, 0x6e,
  0x73, 0x65, 0x5f, 0x31, 0x2f, 0x42, 0x69, 0x61, 0x73, 0x41, 0x64, 0x64,
  0x00, 0x00, 0x00, 0x00, 0x02, 0x00, 0x00, 0x00, 0x01, 0x00, 0x00, 0x00,
  0x04, 0x00, 0x00, 0x00, 0xb8, 0xf9, 0xff, 0xff, 0x70, 0x00, 0x00, 0x00,
  0x10, 0x00, 0x00, 0x00, 0x1c, 0x00, 0x00, 0x00, 0x14, 0x00, 0x00, 0x00,
  0x04, 0x00, 0x00, 0x00, 0x02, 0x00, 0x00, 0x00, 0xff, 0xff, 0xff, 0xff,
  0x10, 0x00, 0x00, 0x00, 0x9c, 0xf9, 0xff, 0xff, 0x46, 0x00, 0x00, 0x00,
  0x73, 0x65, 0x71, 0x75, 0x65, 0x6e, 0x74, 0x69, 0x61, 0x6c, 0x2f, 0x64,
  0x65, 0x6e, 0x73, 0x65, 0x2f, 0x4d, 0x61, 0x74, 0x4d, 0x75, 0x6c, 0x3b,
  0x73, 0x65, 0x71, 0x75, 0x65, 0x6e, 0x74, 0x69, 0x61, 0x6c, 0x2f, 0x64,
  0x65, 0x6e, 0x73, 0x65, 0x2f, 0x52, 0x65, 0x6c, 0x75, 0x3b, 0x73, 0x65,
  0x71, 0x75, 0x65, 0x6e, 0x74, 0x69, 0x61, 0x6c, 0x2f, 0x64, 0x65, 0x6e,
  0x73, 0x65, 0x2f, 0x42, 0x69, 0x61, 0x73, 0x41, 0x64, 0x64, 0x00, 0x00,
  0x02, 0x00, 0x00, 0x00, 0x01, 0x00, 0x00, 0x00, 0x10, 0x00, 0x00, 0x00,
  0x38, 0xfa, 0xff, 0xff, 0x44, 0x00, 0x00, 0x00, 0x0f, 0x00, 0x00, 0x00,
  0x1c, 0x00, 0x00, 0x00, 0x14, 0x00, 0x00, 0x00, 0x04, 0x00, 0x00, 0x00,
  0x02, 0x00, 0x00, 0x00, 0xff, 0xff, 0xff, 0xff, 0xe0, 0x00, 0x00, 0x00,
  0x1c, 0xfa, 0xff, 0xff, 0x1a, 0x00, 0x00, 0x00, 0x73, 0x65, 0x71, 0x75,
  0x65, 0x6e, 0x74, 0x69, 0x61, 0x6c, 0x2f, 0x66, 0x6c, 0x61, 0x74, 0x74,
  0x65, 0x6e, 0x2f, 0x52, 0x65, 0x73, 0x68, 0x61, 0x70, 0x65, 0x00, 0x00,
  0x02, 0x00, 0x00, 0x00, 0x01, 0x00, 0x00, 0x00, 0xe0, 0x00, 0x00, 0x00,
  0x8c, 0xfa, 0xff, 0xff, 0x54, 0x00, 0x00, 0x00, 0x0e, 0x00, 0x00, 0x00,
  0x24, 0x00, 0x00, 0x00, 0x1c, 0x00, 0x00, 0x00, 0x04, 0x00, 0x00, 0x00,
  0x04, 0x00, 0x00, 0x00, 0xff, 0xff, 0xff, 0xff, 0x0e, 0x00, 0x00, 0x00,
  0x01, 0x00, 0x00, 0x00, 0x10, 0x00, 0x00, 0x00, 0x78, 0xfa, 0xff, 0xff,
  0x22, 0x00, 0x00, 0x00, 0x73, 0x65, 0x71, 0x75, 0x65, 0x6e, 0x74, 0x69,
  0x61, 0x6c, 0x2f, 0x6d, 0x61, 0x78, 0x5f, 0x70, 0x6f, 0x6f, 0x6c, 0x69,
  0x6e, 0x67, 0x32, 0x64, 0x5f, 0x31, 0x2f, 0x4d, 0x61, 0x78, 0x50, 0x6f,
  0x6f, 0x6c, 0x00, 0x00, 0x04, 0x00, 0x00, 0x00, 0x01, 0x00, 0x00, 0x00,
  0x0e, 0x00, 0x00, 0x00, 0x01, 0x00, 0x00, 0x00, 0x10, 0x00, 0x00, 0x00,
  0xf8, 0xfa, 0xff, 0xff, 0xb4, 0x00, 0x00, 0x00, 0x0d, 0x00, 0x00, 0x00,
  0x24, 0x00, 0x00, 0x00, 0x1c, 0x00, 0x00, 0x00, 0x04, 0x00, 0x00, 0x00,
  0x04, 0x00, 0x00, 0x00, 0xff, 0xff, 0xff, 0xff, 0x2a, 0x00, 0x00, 0x00,
  0x01, 0x00, 0x00, 0x00, 0x10, 0x00, 0x00, 0x00, 0xe4, 0xfa, 0xff, 0xff,
  0x83, 0x00, 0x00, 0x00, 0x73, 0x65, 0x71, 0x75, 0x65, 0x6e, 0x74, 0x69,
  0x61, 0x6c, 0x2f, 0x63, 0x6f, 0x6e, 0x76, 0x32, 0x64, 0x5f, 0x31, 0x2f,
  0x52, 0x65, 0x6c, 0x75, 0x3b, 0x73, 0x65, 0x71, 0x75, 0x65, 0x6e, 0x74,
  0x69, 0x61, 0x6c, 0x2f, 0x63, 0x6f, 0x6e, 0x76, 0x32, 0x64, 0x5f, 0x31,
  0x2f, 0x42, 0x69, 0x61, 0x73, 0x41, 0x64, 0x64, 0x3b, 0x73, 0x65, 0x71,
  0x75, 0x65, 0x6e, 0x74, 0x69, 0x61, 0x6c, 0x2f, 0x63, 0x6f, 0x6e, 0x76,
  0x32, 0x64, 0x5f, 0x31, 0x2f, 0x43, 0x6f, 0x6e, 0x76, 0x32, 0x44, 0x3b,
  0x73, 0x65, 0x71, 0x75, 0x65, 0x6e, 0x74, 0x69, 0x61, 0x6c, 0x2f, 0x63,
  0x6f, 0x6e, 0x76, 0x32, 0x64, 0x5f, 0x31, 0x2f, 0x42, 0x69, 0x61, 0x73,
  0x41, 0x64, 0x64, 0x2f, 0x52, 0x65, 0x61, 0x64, 0x56, 0x61, 0x72, 0x69,
  0x61, 0x62, 0x6c, 0x65, 0x4f, 0x70, 0x2f, 0x72, 0x65, 0x73, 0x6f, 0x75,
  0x72, 0x63, 0x65, 0x00, 0x04, 0x00, 0x00, 0x00, 0x01, 0x00, 0x00, 0x00,
  0x2a, 0x00, 0x00, 0x00, 0x01, 0x00, 0x00, 0x00, 0x10, 0x00, 0x00, 0x00,
  0xc4, 0xfb, 0xff, 0xff, 0x54, 0x00, 0x00, 0x00, 0x0c, 0x00, 0x00, 0x00,
  0x24, 0x00, 0x00, 0x00, 0x1c, 0x00, 0x00, 0x00, 0x04, 0x00, 0x00, 0x00,
  0x04, 0x00, 0x00, 0x00, 0xff, 0xff, 0xff, 0xff, 0x2a, 0x00, 0x00, 0x00,
  0x01, 0x00, 0x00, 0x00, 0x08, 0x00, 0x00, 0x00, 0xb0, 0xfb, 0xff, 0xff,
  0x20, 0x00, 0x00, 0x00, 0x73, 0x65, 0x71, 0x75, 0x65, 0x6e, 0x74, 0x69,
  0x61, 0x6c, 0x2f, 0x6d, 0x61, 0x78, 0x5f, 0x70, 0x6f, 0x6f, 0x6c, 0x69,
  0x6e, 0x67, 0x32, 0x64, 0x2f, 0x4d, 0x61, 0x78, 0x50, 0x6f, 0x6f, 0x6c,
  0x00, 0x00, 0x00, 0x00, 0x04, 0x00, 0x00, 0x00, 0x01, 0x00, 0x00, 0x00,
  0x2a, 0x00, 0x00, 0x00, 0x01, 0x00, 0x00, 0x00, 0x08, 0x00, 0x00, 0x00,
  0x30, 0xfc, 0xff, 0xff, 0xac, 0x00, 0x00, 0x00, 0x0b, 0x00, 0x00, 0x00,
  0x24, 0x00, 0x00, 0x00, 0x1c, 0x00, 0x00, 0x00, 0x04, 0x00, 0x00, 0x00,
  0x04, 0x00, 0x00, 0x00, 0xff, 0xff, 0xff, 0xff, 0x80, 0x00, 0x00, 0x00,
  0x03, 0x00, 0x00, 0x00, 0x08, 0x00, 0x00, 0x00, 0x1c, 0xfc, 0xff, 0xff,
  0x7b, 0x00, 0x00, 0x00, 0x73, 0x65, 0x71, 0x75, 0x65, 0x6e, 0x74, 0x69,
  0x61, 0x6c, 0x2f, 0x63, 0x6f, 0x6e, 0x76, 0x32, 0x64, 0x2f, 0x52, 0x65,
  0x6c, 0x75, 0x3b, 0x73, 0x65, 0x71, 0x75, 0x65, 0x6e, 0x74, 0x69, 0x61,
  0x6c, 0x2f, 0x63, 0x6f, 0x6e, 0x76, 0x32, 0x64, 0x2f, 0x42, 0x69, 0x61,
  0x73, 0x41, 0x64, 0x64, 0x3b, 0x73, 0x65, 0x71, 0x75, 0x65, 0x6e, 0x74,
  0x69, 0x61, 0x6c, 0x2f, 0x63, 0x6f, 0x6e, 0x76, 0x32, 0x64, 0x2f, 0x43,
  0x6f, 0x6e, 0x76, 0x32, 0x44, 0x3b, 0x73, 0x65, 0x71, 0x75, 0x65, 0x6e,
  0x74, 0x69, 0x61, 0x6c, 0x2f, 0x63, 0x6f, 0x6e, 0x76, 0x32, 0x64, 0x2f,
  0x42, 0x69, 0x61, 0x73, 0x41, 0x64, 0x64, 0x2f, 0x52, 0x65, 0x61, 0x64,
  0x56, 0x61, 0x72, 0x69, 0x61, 0x62, 0x6c, 0x65, 0x4f, 0x70, 0x2f, 0x72,
  0x65, 0x73, 0x6f, 0x75, 0x72, 0x63, 0x65, 0x00, 0x04, 0x00, 0x00, 0x00,
  0x01, 0x00, 0x00, 0x00, 0x80, 0x00, 0x00, 0x00, 0x03, 0x00, 0x00, 0x00,
  0x08, 0x00, 0x00, 0x00, 0xae, 0xfd, 0xff, 0xff, 0x34, 0x00, 0x00, 0x00,
  0x0a, 0x00, 0x00, 0x00, 0x0c, 0x00, 0x00, 0x00, 0x04, 0x00, 0x00, 0x00,
  0xc8, 0xfc, 0xff, 0xff, 0x1a, 0x00, 0x00, 0x00, 0x73, 0x65, 0x71, 0x75,
  0x65, 0x6e, 0x74, 0x69, 0x61, 0x6c, 0x2f, 0x63, 0x6f, 0x6e, 0x76, 0x32,
  0x64, 0x5f, 0x31, 0x2f, 0x43, 0x6f, 0x6e, 0x76, 0x32, 0x44, 0x00, 0x00,
  0x04, 0x00, 0x00, 0x00, 0x10, 0x00, 0x00, 0x00, 0x04, 0x00, 0x00, 0x00,
  0x01, 0x00, 0x00, 0x00, 0x08, 0x00, 0x00, 0x00, 0xfa, 0xfd, 0xff, 0xff,
  0x34, 0x00, 0x00, 0x00, 0x09, 0x00, 0x00, 0x00, 0x0c, 0x00, 0x00, 0x00,
  0x04, 0x00, 0x00, 0x00, 0x14, 0xfd, 0xff, 0xff, 0x18, 0x00, 0x00, 0x00,
  0x73, 0x65, 0x71, 0x75, 0x65, 0x6e, 0x74, 0x69, 0x61, 0x6c, 0x2f, 0x63,
  0x6f, 0x6e, 0x76, 0x32, 0x64, 0x2f, 0x43, 0x6f, 0x6e, 0x76, 0x32, 0x44,
  0x00, 0x00, 0x00, 0x00, 0x04, 0x00, 0x00, 0x00, 0x08, 0x00, 0x00, 0x00,
  0x04, 0x00, 0x00, 0x00, 0x03, 0x00, 0x00, 0x00, 0x01, 0x00, 0x00, 0x00,
  0x46, 0xfe, 0xff, 0xff, 0x34, 0x00, 0x00, 0x00, 0x08, 0x00, 0x00, 0x00,
  0x0c, 0x00, 0x00, 0x00, 0x04, 0x00, 0x00, 0x00, 0x60, 0xfd, 0xff, 0xff,
  0x19, 0x00, 0x00, 0x00, 0x73, 0x65, 0x71, 0x75, 0x65, 0x6e, 0x74, 0x69,
  0x61, 0x6c, 0x2f, 0x64, 0x65, 0x6e, 0x73, 0x65, 0x5f, 0x31, 0x2f, 0x4d,
  0x61, 0x74, 0x4d, 0x75, 0x6c, 0x00, 0x00, 0x00, 0x02, 0x00, 0x00, 0x00,
  0x04, 0x00, 0x00, 0x00, 0x10, 0x00, 0x00, 0x00, 0x22, 0xfe, 0xff, 0xff,
  0x00, 0x00, 0x00, 0x09, 0x58, 0x00, 0x00, 0x00, 0x07, 0x00, 0x00, 0x00,
  0x34, 0x00, 0x00, 0x00, 0x10, 0x00, 0x00, 0x00, 0x0c, 0x00, 0x0c, 0x00,
  0x00, 0x00, 0x00, 0x00, 0x04, 0x00, 0x08, 0x00, 0x0c, 0x00, 0x00, 0x00,
  0x14, 0x00, 0x00, 0x00, 0x04, 0x00, 0x00, 0x00, 0x01, 0x00, 0x00, 0x00,
  0x00, 0x00, 0x00, 0x00, 0x00, 0x00, 0x00, 0x00, 0x01, 0x00, 0x00, 0x00,
  0x96, 0x0f, 0xe1, 0x3a, 0x17, 0x00, 0x00, 0x00, 0x73, 0x65, 0x71, 0x75,
  0x65, 0x6e, 0x74, 0x69, 0x61, 0x6c, 0x2f, 0x64, 0x65, 0x6e, 0x73, 0x65,
  0x2f, 0x4d, 0x61, 0x74, 0x4d, 0x75, 0x6c, 0x00, 0x02, 0x00, 0x00, 0x00,
  0x10, 0x00, 0x00, 0x00, 0xe0, 0x00, 0x00, 0x00, 0xf6, 0xfe, 0xff, 0xff,
  0x4c, 0x00, 0x00, 0x00, 0x06, 0x00, 0x00, 0x00, 0x0c, 0x00, 0x00, 0x00,
  0x04, 0x00, 0x00, 0x00, 0x10, 0xfe, 0xff, 0xff, 0x31, 0x00, 0x00, 0x00,
  0x73, 0x65, 0x71, 0x75, 0x65, 0x6e, 0x74, 0x69, 0x61, 0x6c, 0x2f, 0x63,
  0x6f, 0x6e, 0x76, 0x32, 0x64, 0x2f, 0x42, 0x69, 0x61, 0x73, 0x41, 0x64,
  0x64, 0x2f, 0x52, 0x65, 0x61, 0x64, 0x56, 0x61, 0x72, 0x69, 0x61, 0x62,
  0x6c, 0x65, 0x4f, 0x70, 0x2f, 0x72, 0x65, 0x73, 0x6f, 0x75, 0x72, 0x63,
  0x65, 0x00, 0x00, 0x00, 0x01, 0x00, 0x00, 0x00, 0x08, 0x00, 0x00, 0x00,
  0x4e, 0xff, 0xff, 0xff, 0x4c, 0x00, 0x00, 0x00, 0x05, 0x00, 0x00, 0x00,
  0x0c, 0x00, 0x00, 0x00, 0x04, 0x00, 0x00, 0x00, 0x68, 0xfe, 0xff, 0xff,
  0x33, 0x00, 0x00, 0x00, 0x73, 0x65, 0x71, 0x75, 0x65, 0x6e, 0x74, 0x69,
  0x61, 0x6c, 0x2f, 0x63, 0x6f, 0x6e, 0x76, 0x32, 0x64, 0x5f, 0x31, 0x2f,
  0x42, 0x69, 0x61, 0x73, 0x41, 0x64, 0x64, 0x2f, 0x52, 0x65, 0x61, 0x64,
  0x56, 0x61, 0x72, 0x69, 0x61, 0x62, 0x6c, 0x65, 0x4f, 0x70, 0x2f, 0x72,
  0x65, 0x73, 0x6f, 0x75, 0x72, 0x63, 0x65, 0x00, 0x01, 0x00, 0x00, 0x00,
  0x10, 0x00, 0x00, 0x00, 0xa6, 0xff, 0xff, 0xff, 0x4c, 0x00, 0x00, 0x00,
  0x04, 0x00, 0x00, 0x00, 0x0c, 0x00, 0x00, 0x00, 0x04, 0x00, 0x00, 0x00,
  0xc0, 0xfe, 0xff, 0xff, 0x30, 0x00, 0x00, 0x00, 0x73, 0x65, 0x71, 0x75,
  0x65, 0x6e, 0x74, 0x69, 0x61, 0x6c, 0x2f, 0x64, 0x65, 0x6e, 0x73, 0x65,
  0x2f, 0x42, 0x69, 0x61, 0x73, 0x41, 0x64, 0x64, 0x2f, 0x52, 0x65, 0x61,
  0x64, 0x56, 0x61, 0x72, 0x69, 0x61, 0x62, 0x6c, 0x65, 0x4f, 0x70, 0x2f,
  0x72, 0x65, 0x73, 0x6f, 0x75, 0x72, 0x63, 0x65, 0x00, 0x00, 0x00, 0x00,
  0x01, 0x00, 0x00, 0x00, 0x10, 0x00, 0x00, 0x00, 0x00, 0x00, 0x0e, 0x00,
  0x14, 0x00, 0x04, 0x00, 0x00, 0x00, 0x08, 0x00, 0x0c, 0x00, 0x10, 0x00,
  0x0e, 0x00, 0x00, 0x00, 0x4c, 0x00, 0x00, 0x00, 0x03, 0x00, 0x00, 0x00,
  0x0c, 0x00, 0x00, 0x00, 0x04, 0x00, 0x00, 0x00, 0x28, 0xff, 0xff, 0xff,
  0x32, 0x00, 0x00, 0x00, 0x73, 0x65, 0x71, 0x75, 0x65, 0x6e, 0x74, 0x69,
  0x61, 0x6c, 0x2f, 0x64, 0x65, 0x6e, 0x73, 0x65, 0x5f, 0x31, 0x2f, 0x42,
  0x69, 0x61, 0x73, 0x41, 0x64, 0x64, 0x2f, 0x52, 0x65, 0x61, 0x64, 0x56,
  0x61, 0x72, 0x69, 0x61, 0x62, 0x6c, 0x65, 0x4f, 0x70, 0x2f, 0x72, 0x65,
  0x73, 0x6f, 0x75, 0x72, 0x63, 0x65, 0x00, 0x00, 0x01, 0x00, 0x00, 0x00,
  0x04, 0x00, 0x00, 0x00, 0x00, 0x00, 0x0e, 0x00, 0x18, 0x00, 0x08, 0x00,
  0x07, 0x00, 0x0c, 0x00, 0x10, 0x00, 0x14, 0x00, 0x0e, 0x00, 0x00, 0x00,
  0x00, 0x00, 0x00, 0x02, 0x34, 0x00, 0x00, 0x00, 0x02, 0x00, 0x00, 0x00,
  0x0c, 0x00, 0x00, 0x00, 0x04, 0x00, 0x00, 0x00, 0x94, 0xff, 0xff, 0xff,
  0x18, 0x00, 0x00, 0x00, 0x73, 0x65, 0x71, 0x75, 0x65, 0x6e, 0x74, 0x69,
  0x61, 0x6c, 0x2f, 0x66, 0x6c, 0x61, 0x74, 0x74, 0x65, 0x6e, 0x2f, 0x43,
  0x6f, 0x6e, 0x73, 0x74, 0x00, 0x00, 0x00, 0x00, 0x01, 0x00, 0x00, 0x00,
  0x02, 0x00, 0x00, 0x00, 0x14, 0x00, 0x18, 0x00, 0x04, 0x00, 0x00, 0x00,
  0x08, 0x00, 0x0c, 0x00, 0x10, 0x00, 0x00, 0x00, 0x00, 0x00, 0x14, 0x00,
  0x14, 0x00, 0x00, 0x00, 0x44, 0x00, 0x00, 0x00, 0x01, 0x00, 0x00, 0x00,
  0x28, 0x00, 0x00, 0x00, 0x20, 0x00, 0x00, 0x00, 0x04, 0x00, 0x00, 0x00,
  0x04, 0x00, 0x00, 0x00, 0xff, 0xff, 0xff, 0xff, 0x80, 0x00, 0x00, 0x00,
  0x03, 0x00, 0x00, 0x00, 0x01, 0x00, 0x00, 0x00, 0x04, 0x00, 0x04, 0x00,
  0x04, 0x00, 0x00, 0x00, 0x0c, 0x00, 0x00, 0x00, 0x63, 0x6f, 0x6e, 0x76,
  0x32, 0x64, 0x5f, 0x69, 0x6e, 0x70, 0x75, 0x74, 0x00, 0x00, 0x00, 0x00,
  0x04, 0x00, 0x00, 0x00, 0x01, 0x00, 0x00, 0x00, 0x80, 0x00, 0x00, 0x00,
  0x03, 0x00, 0x00, 0x00, 0x01, 0x00, 0x00, 0x00, 0x05, 0x00, 0x00, 0x00,
  0x60, 0x00, 0x00, 0x00, 0x44, 0x00, 0x00, 0x00, 0x28, 0x00, 0x00, 0x00,
  0x14, 0x00, 0x00, 0x00, 0x04, 0x00, 0x00, 0x00, 0xd8, 0xff, 0xff, 0xff,
  0x00, 0x00, 0x00, 0x19, 0x19, 0x00, 0x00, 0x00, 0xcc, 0xff, 0xff, 0xff,
  0x00, 0x00, 0x00, 0x09, 0x09, 0x00, 0x00, 0x00, 0x09, 0x00, 0x00, 0x00,
  0xf4, 0xff, 0xff, 0xff, 0x00, 0x00, 0x00, 0x16, 0x16, 0x00, 0x00, 0x00,
  0x0c, 0x00, 0x0c, 0x00, 0x07, 0x00, 0x00, 0x00, 0x00, 0x00, 0x08, 0x00,
  0x0c, 0x00, 0x00, 0x00, 0x00, 0x00, 0x00, 0x11, 0x11, 0x00, 0x00, 0x00,
  0x0c, 0x00, 0x10, 0x00, 0x07, 0x00, 0x00, 0x00, 0x08, 0x00, 0x0c, 0x00,
  0x0c, 0x00, 0x00, 0x00, 0x00, 0x00, 0x00, 0x03, 0x05, 0x00, 0x00, 0x00,
  0x03, 0x00, 0x00, 0x00
};
const unsigned int g_magic_wand_model_data_size = 9760;
